#pragma once
#include <cstdint>

extern const unsigned char g_model[];
extern const unsigned int g_model_len;

const unsigned char g_model[] = {
  0x1c, 0x00, 0x00, 0x00, 0x54, 0x46, 0x4c, 0x33, 0x14, 0x00, 0x20, 0x00, 
  0x1c, 0x00, 0x18, 0x00, 0x14, 0x00, 0x10, 0x00, 0x0c, 0x00, 0x00, 0x00, 
  0x08, 0x00, 0x04, 0x00, 0x14, 0x00, 0x00, 0x00, 0x1c, 0x00, 0x00, 0x00, 
  0x98, 0x00, 0x00, 0x00, 0xf0, 0x00, 0x00, 0x00, 0x40, 0x5f, 0x00, 0x00, 
  0x50, 0x5f, 0x00, 0x00, 0xf8, 0x75, 0x00, 0x00, 0x03, 0x00, 0x00, 0x00, 
  0x01, 0x00, 0x00, 0x00, 0x10, 0x00, 0x00, 0x00, 0x00, 0x00, 0x0a, 0x00, 
  0x10, 0x00, 0x0c, 0x00, 0x08, 0x00, 0x04, 0x00, 0x0a, 0x00, 0x00, 0x00, 
  0x0c, 0x00, 0x00, 0x00, 0x1c, 0x00, 0x00, 0x00, 0x3c, 0x00, 0x00, 0x00, 
  0x0f, 0x00, 0x00, 0x00, 0x73, 0x65, 0x72, 0x76, 0x69, 0x6e, 0x67, 0x5f, 
  0x64, 0x65, 0x66, 0x61, 0x75, 0x6c, 0x74, 0x00, 0x01, 0x00, 0x00, 0x00, 
  0x04, 0x00, 0x00, 0x00, 0x90, 0xff, 0xff, 0xff, 0x11, 0x00, 0x00, 0x00, 
  0x04, 0x00, 0x00, 0x00, 0x08, 0x00, 0x00, 0x00, 0x6f, 0x75, 0x74, 0x70, 
  0x75, 0x74, 0x5f, 0x30, 0x00, 0x00, 0x00, 0x00, 0x01, 0x00, 0x00, 0x00, 
  0x04, 0x00, 0x00, 0x00, 0xa6, 0xa0, 0xff, 0xff, 0x04, 0x00, 0x00, 0x00, 
  0x0c, 0x00, 0x00, 0x00, 0x6b, 0x65, 0x72, 0x61, 0x73, 0x5f, 0x74, 0x65, 
  0x6e, 0x73, 0x6f, 0x72, 0x00, 0x00, 0x00, 0x00, 0x02, 0x00, 0x00, 0x00, 
  0x34, 0x00, 0x00, 0x00, 0x04, 0x00, 0x00, 0x00, 0xdc, 0xff, 0xff, 0xff, 
  0x14, 0x00, 0x00, 0x00, 0x04, 0x00, 0x00, 0x00, 0x13, 0x00, 0x00, 0x00, 
  0x43, 0x4f, 0x4e, 0x56, 0x45, 0x52, 0x53, 0x49, 0x4f, 0x4e, 0x5f, 0x4d, 
  0x45, 0x54, 0x41, 0x44, 0x41, 0x54, 0x41, 0x00, 0x08, 0x00, 0x0c, 0x00, 
  0x08, 0x00, 0x04, 0x00, 0x08, 0x00, 0x00, 0x00, 0x13, 0x00, 0x00, 0x00, 
  0x04, 0x00, 0x00, 0x00, 0x13, 0x00, 0x00, 0x00, 0x6d, 0x69, 0x6e, 0x5f, 
  0x72, 0x75, 0x6e, 0x74, 0x69, 0x6d, 0x65, 0x5f, 0x76, 0x65, 0x72, 0x73, 
  0x69, 0x6f, 0x6e, 0x00, 0x15, 0x00, 0x00, 0x00, 0x4c, 0x5e, 0x00, 0x00, 
  0x44, 0x5e, 0x00, 0x00, 0x2c, 0x5e, 0x00, 0x00, 0x14, 0x5e, 0x00, 0x00, 
  0x84, 0x5d, 0x00, 0x00, 0x74, 0x5c, 0x00, 0x00, 0x64, 0x14, 0x00, 0x00, 
  0xd4, 0x13, 0x00, 0x00, 0xc4, 0x01, 0x00, 0x00, 0x74, 0x01, 0x00, 0x00, 
  0xd4, 0x00, 0x00, 0x00, 0xcc, 0x00, 0x00, 0x00, 0xc4, 0x00, 0x00, 0x00, 
  0xbc, 0x00, 0x00, 0x00, 0xb4, 0x00, 0x00, 0x00, 0xac, 0x00, 0x00, 0x00, 
  0xa4, 0x00, 0x00, 0x00, 0x9c, 0x00, 0x00, 0x00, 0x94, 0x00, 0x00, 0x00, 
  0x74, 0x00, 0x00, 0x00, 0x04, 0x00, 0x00, 0x00, 0x76, 0xa1, 0xff, 0xff, 
  0x04, 0x00, 0x00, 0x00, 0x60, 0x00, 0x00, 0x00, 0x0c, 0x00, 0x00, 0x00, 
  0x08, 0x00, 0x0e, 0x00, 0x08, 0x00, 0x04, 0x00, 0x08, 0x00, 0x00, 0x00, 
  0x10, 0x00, 0x00, 0x00, 0x28, 0x00, 0x00, 0x00, 0x00, 0x00, 0x06, 0x00, 
  0x08, 0x00, 0x04, 0x00, 0x06, 0x00, 0x00, 0x00, 0x04, 0x00, 0x00, 0x00, 
  0x01, 0x00, 0x00, 0x00, 0xeb, 0x03, 0x00, 0x00, 0x0c, 0x00, 0x18, 0x00, 
  0x14, 0x00, 0x10, 0x00, 0x0c, 0x00, 0x04, 0x00, 0x0c, 0x00, 0x00, 0x00, 
  0xf0, 0xa1, 0x34, 0xd3, 0x43, 0x4b, 0xfe, 0x75, 0x02, 0x00, 0x00, 0x00, 
  0x02, 0x00, 0x00, 0x00, 0x04, 0x00, 0x00, 0x00, 0x06, 0x00, 0x00, 0x00, 
  0x32, 0x2e, 0x32, 0x30, 0x2e, 0x30, 0x00, 0x00, 0xe2, 0xa1, 0xff, 0xff, 
  0x04, 0x00, 0x00, 0x00, 0x10, 0x00, 0x00, 0x00, 0x31, 0x2e, 0x31, 0x34, 
  0x2e, 0x30, 0x00, 0x00, 0x00, 0x00, 0x00, 0x00, 0x00, 0x00, 0x00, 0x00, 
  0xa4, 0x8c, 0xff, 0xff, 0xa8, 0x8c, 0xff, 0xff, 0xac, 0x8c, 0xff, 0xff, 
  0xb0, 0x8c, 0xff, 0xff, 0xb4, 0x8c, 0xff, 0xff, 0xb8, 0x8c, 0xff, 0xff, 
  0xbc, 0x8c, 0xff, 0xff, 0xc0, 0x8c, 0xff, 0xff, 0x1e, 0xa2, 0xff, 0xff, 
  0x04, 0x00, 0x00, 0x00, 0x90, 0x00, 0x00, 0x00, 0x55, 0x7b, 0x39, 0x7f, 
  0x50, 0x25, 0xab, 0x07, 0xb9, 0x7f, 0x10, 0x7b, 0xb9, 0xaa, 0xb6, 0xbf, 
  0xb1, 0xe8, 0x6a, 0xc1, 0x2b, 0xd8, 0x57, 0x35, 0x02, 0x81, 0xb9, 0x4b, 
  0xba, 0x81, 0xe1, 0x81, 0xf5, 0xc7, 0xcf, 0x48, 0xcd, 0x68, 0x7f, 0x92, 
  0x45, 0x0c, 0x5b, 0x46, 0xff, 0x63, 0x4e, 0xd6, 0x7f, 0xae, 0xbf, 0xde, 
  0xb2, 0xde, 0xf7, 0xd2, 0x0f, 0x26, 0xdb, 0xcc, 0x81, 0xbf, 0x87, 0x71, 
  0x95, 0x7f, 0x3e, 0x49, 0x07, 0x96, 0x07, 0x3c, 0x23, 0x7f, 0x2a, 0x5d, 
  0x9a, 0xfb, 0xd3, 0x19, 0x83, 0xd0, 0xc7, 0x81, 0xa8, 0x69, 0x01, 0xc9, 
  0x14, 0xd1, 0x7f, 0xda, 0x77, 0x0f, 0xf0, 0x63, 0xf3, 0xd5, 0x38, 0xc4, 
  0x43, 0xd1, 0xbb, 0xaa, 0xce, 0x7f, 0x35, 0x18, 0xe3, 0x8b, 0x81, 0x66, 
  0x02, 0x9a, 0x27, 0x5f, 0x7c, 0x28, 0x99, 0x7f, 0x2a, 0x82, 0xdb, 0x56, 
  0xd3, 0xf7, 0xd7, 0x7a, 0x81, 0xf9, 0xd6, 0x60, 0x3c, 0x42, 0xee, 0x2a, 
  0x64, 0x1b, 0x2f, 0x81, 0xa7, 0x62, 0xfe, 0x91, 0xba, 0xa2, 0xff, 0xff, 
  0x04, 0x00, 0x00, 0x00, 0x40, 0x00, 0x00, 0x00, 0x08, 0x10, 0x00, 0x00, 
  0x54, 0x12, 0x00, 0x00, 0x97, 0xf8, 0xff, 0xff, 0x00, 0x00, 0x00, 0x00, 
  0x5f, 0x10, 0x00, 0x00, 0x89, 0x01, 0x00, 0x00, 0x00, 0x00, 0x00, 0x00, 
  0xa9, 0x01, 0x00, 0x00, 0xf3, 0xf2, 0xff, 0xff, 0xd8, 0xf6, 0xff, 0xff, 
  0x48, 0x09, 0x00, 0x00, 0x93, 0x03, 0x00, 0x00, 0x9b, 0xfa, 0xff, 0xff, 
  0x55, 0xfd, 0xff, 0xff, 0xa0, 0xf1, 0xff, 0xff, 0xaa, 0xf9, 0xff, 0xff, 
  0x06, 0xa3, 0xff, 0xff, 0x04, 0x00, 0x00, 0x00, 0x00, 0x12, 0x00, 0x00, 
  0xdd, 0x18, 0x5a, 0xd5, 0xe2, 0x1f, 0xf6, 0xf7, 0xfd, 0xde, 0x3b, 0x7d, 
  0xf2, 0x60, 0xdc, 0x10, 0xf1, 0x59, 0xf8, 0xda, 0x2a, 0x21, 0x08, 0xf4, 
  0xd9, 0xdf, 0xe9, 0x25, 0x5c, 0x25, 0x32, 0x3e, 0xeb, 0x44, 0x2c, 0x06, 
  0x13, 0x11, 0x2c, 0x0c, 0x26, 0xda, 0xe9, 0x3f, 0x4b, 0x7b, 0xc8, 0x22, 
  0xf4, 0x22, 0x2a, 0x2b, 0x3f, 0x49, 0x0a, 0xd7, 0x46, 0x3b, 0x0f, 0x05, 
  0x38, 0x58, 0x1c, 0x6f, 0xf9, 0x5f, 0x3f, 0xef, 0x33, 0x58, 0xd0, 0x15, 
  0x25, 0x1e, 0xfd, 0x37, 0x60, 0x3d, 0x0b, 0x6a, 0x05, 0x50, 0x72, 0x0a, 
  0xf4, 0x47, 0x06, 0x30, 0x23, 0x3c, 0xc9, 0x3b, 0x54, 0x2d, 0xce, 0x5b, 
  0xec, 0x37, 0x21, 0xe9, 0xce, 0x15, 0x25, 0x1e, 0xe1, 0x14, 0x1e, 0x7f, 
  0x37, 0x17, 0x43, 0x22, 0x26, 0x18, 0xfc, 0xdb, 0x0a, 0x39, 0x04, 0xd8, 
  0x19, 0xcd, 0xd1, 0x2b, 0x5b, 0xf5, 0x16, 0x4d, 0xf2, 0x5d, 0x2c, 0xd4, 
  0x1e, 0x51, 0xd8, 0xf9, 0xe4, 0x20, 0x11, 0x4c, 0x6c, 0x1f, 0xf0, 0x3b, 
  0x0d, 0xc3, 0xbe, 0xd1, 0x55, 0xa2, 0xe2, 0xd8, 0x52, 0xed, 0x02, 0xb0, 
  0x0f, 0xcc, 0x45, 0xa4, 0x58, 0xb1, 0xb0, 0xe4, 0x52, 0x21, 0x2d, 0x52, 
  0xfd, 0x10, 0xdf, 0xa6, 0xc9, 0xad, 0xd6, 0xd5, 0x0f, 0xa1, 0xac, 0xd5, 
  0x47, 0xe7, 0xd3, 0xee, 0x0c, 0xcc, 0x62, 0x2e, 0x21, 0xb6, 0xe7, 0xfa, 
  0x39, 0xc5, 0xee, 0xf3, 0xfb, 0xd0, 0xfd, 0x14, 0xd7, 0x07, 0x5d, 0xcb, 
  0xab, 0x08, 0x27, 0x19, 0x18, 0xa0, 0xea, 0xc6, 0x62, 0xa2, 0xe9, 0x1a, 
  0xdb, 0xd9, 0x34, 0xc5, 0xfb, 0xda, 0x3e, 0xd0, 0x37, 0xe2, 0xc8, 0x13, 
  0x4a, 0xdb, 0x41, 0x49, 0x2e, 0x29, 0xd7, 0xcf, 0x21, 0x04, 0x1f, 0xd6, 
  0x17, 0x81, 0xfd, 0xcf, 0x12, 0xf2, 0x25, 0x22, 0x1e, 0xee, 0xf5, 0xcd, 
  0x07, 0xb6, 0xf6, 0xee, 0x40, 0xed, 0xda, 0x02, 0x31, 0x38, 0x3d, 0x49, 
  0x31, 0xeb, 0xe7, 0x23, 0xb3, 0x0d, 0xe1, 0xf8, 0x0a, 0xd9, 0xe8, 0x08, 
  0x10, 0xfd, 0x0a, 0x33, 0xdf, 0xbb, 0x3a, 0x22, 0xbb, 0xc7, 0xe1, 0xd6, 
  0xe4, 0x32, 0x3d, 0xd9, 0x10, 0x6f, 0xe2, 0xc6, 0x1e, 0xd0, 0x1a, 0x79, 
  0x63, 0x23, 0x38, 0x67, 0x13, 0x59, 0x41, 0xcf, 0xc8, 0x5b, 0xfb, 0x06, 
  0xf9, 0xea, 0xfb, 0x4b, 0x35, 0x48, 0x15, 0xff, 0x1f, 0x0e, 0x73, 0x16, 
  0xc7, 0x46, 0xe4, 0xd3, 0x2d, 0x05, 0x1e, 0x60, 0x53, 0x18, 0xc2, 0x6d, 
  0xd0, 0x2b, 0x5e, 0xdf, 0xe3, 0x4b, 0x13, 0xdc, 0x4b, 0x0b, 0xe2, 0x61, 
  0xf6, 0x1e, 0xf5, 0x24, 0x1d, 0xfc, 0x6a, 0xec, 0x1a, 0x2b, 0x00, 0x1f, 
  0x03, 0x0d, 0x17, 0x4d, 0x02, 0x5e, 0xf9, 0xef, 0x38, 0x08, 0x51, 0x09, 
  0x18, 0x47, 0xfa, 0xc1, 0x48, 0xd9, 0xe5, 0x55, 0x5c, 0x5d, 0x08, 0x67, 
  0x11, 0x5f, 0x37, 0x00, 0x2a, 0x2c, 0xd9, 0xcc, 0x2e, 0xfc, 0x36, 0x7f, 
  0x1c, 0x0b, 0xff, 0x5a, 0xf0, 0x60, 0x2c, 0xf7, 0xdf, 0xd9, 0x00, 0x06, 
  0x36, 0xc4, 0x09, 0x43, 0x2f, 0x25, 0x0c, 0xfb, 0xc1, 0xfd, 0x32, 0xf6, 
  0x31, 0x35, 0x3b, 0xf6, 0x0a, 0xd0, 0x2e, 0x5f, 0x0b, 0x6b, 0x11, 0x5a, 
  0x39, 0xfe, 0x0a, 0xcd, 0x36, 0x63, 0xdf, 0x1a, 0xd8, 0x16, 0xc1, 0x7a, 
  0x3e, 0x74, 0x42, 0x36, 0xe0, 0x1a, 0x4d, 0xd2, 0x2a, 0x1c, 0x19, 0x07, 
  0x07, 0xde, 0xc0, 0x7f, 0x46, 0x32, 0x19, 0x12, 0x1c, 0x2d, 0x3f, 0xd7, 
  0xc4, 0x56, 0xd6, 0x35, 0xd6, 0xf9, 0x1c, 0x30, 0x4f, 0x3f, 0xf0, 0x5d, 
  0x20, 0x24, 0x13, 0x13, 0x21, 0x6e, 0x0a, 0x18, 0xdd, 0xdc, 0x23, 0x70, 
  0x69, 0x5a, 0x0c, 0x4f, 0xd0, 0x7a, 0x68, 0x3b, 0xbe, 0x1c, 0x2a, 0xd3, 
  0xdc, 0x2b, 0xca, 0x2e, 0x31, 0x1f, 0xee, 0x5a, 0x2f, 0x51, 0x20, 0x30, 
  0xd4, 0x55, 0x32, 0x1f, 0x2c, 0xd5, 0xc3, 0x7a, 0x04, 0x3e, 0xeb, 0x51, 
  0x00, 0x00, 0x47, 0x15, 0xc4, 0x05, 0x14, 0x31, 0xf2, 0xdc, 0x30, 0x38, 
  0x47, 0x33, 0xd7, 0x66, 0x3b, 0x02, 0xfd, 0xf3, 0xce, 0x1d, 0x0f, 0x2a, 
  0x2c, 0xf5, 0xf1, 0x6b, 0x45, 0x3f, 0x14, 0xf8, 0xf9, 0x01, 0x03, 0x2f, 
  0xcd, 0x2f, 0x31, 0xf4, 0x3c, 0xf3, 0x32, 0x2b, 0x19, 0x0f, 0x0f, 0x16, 
  0x1b, 0x07, 0x47, 0x3d, 0xec, 0x67, 0xde, 0xec, 0xd4, 0x0d, 0x04, 0x7f, 
  0x5b, 0x16, 0x18, 0x6e, 0x01, 0x30, 0x1f, 0x12, 0xef, 0x29, 0xef, 0xd8, 
  0xe7, 0x19, 0xfb, 0x7b, 0x2f, 0x1f, 0x3d, 0x4a, 0x0e, 0x0a, 0x30, 0x19, 
  0x1c, 0x5d, 0x05, 0xe1, 0xf8, 0xf5, 0x13, 0x3c, 0x67, 0x3f, 0xc6, 0xfa, 
  0xf7, 0x31, 0x47, 0x3e, 0x1e, 0x74, 0x22, 0x2e, 0xe0, 0xf7, 0x34, 0xff, 
  0x59, 0x69, 0x24, 0xfd, 0x07, 0x01, 0x26, 0x14, 0xde, 0x12, 0xe2, 0xe7, 
  0x40, 0xda, 0xe5, 0x6f, 0x4a, 0x47, 0x34, 0x26, 0x18, 0x57, 0x14, 0x30, 
  0xd1, 0x5b, 0x13, 0xdb, 0x04, 0xd5, 0x02, 0x12, 0x64, 0x55, 0xc7, 0xee, 
  0x1c, 0x23, 0x1a, 0xc5, 0x05, 0x06, 0xf4, 0x20, 0xfe, 0xc1, 0x3b, 0x05, 
  0xf7, 0x22, 0x26, 0x3c, 0x23, 0x5a, 0x14, 0x03, 0xe8, 0x6f, 0xcb, 0xda, 
  0x44, 0xcf, 0xe3, 0x29, 0x1a, 0x58, 0xe2, 0x40, 0x04, 0x72, 0x45, 0xcb, 
  0x32, 0x24, 0xc6, 0x21, 0xd1, 0xd4, 0xd8, 0xf9, 0xf5, 0x4e, 0x28, 0x20, 
  0xfb, 0x38, 0x6a, 0xea, 0x0d, 0x1b, 0x05, 0x39, 0x2c, 0x35, 0x3b, 0x59, 
  0xee, 0x64, 0x19, 0x6f, 0xe7, 0x45, 0x5d, 0xe1, 0xc4, 0x5c, 0xc9, 0xf0, 
  0xf7, 0xd3, 0x32, 0xf3, 0x05, 0x02, 0xff, 0x41, 0xf9, 0x23, 0x78, 0x02, 
  0xfc, 0x55, 0x2a, 0xf5, 0xdc, 0xc4, 0x01, 0xdf, 0x00, 0x41, 0xc9, 0x27, 
  0xe4, 0xe5, 0xf7, 0xd1, 0xd9, 0xf8, 0xfa, 0xd6, 0xcb, 0x3b, 0xfe, 0x18, 
  0x64, 0x2e, 0x36, 0x59, 0xd0, 0xda, 0xdf, 0xf2, 0x25, 0x4a, 0x18, 0x0e, 
  0x10, 0x34, 0xbf, 0x07, 0x47, 0x1a, 0x1c, 0x39, 0xb6, 0xe9, 0x13, 0x20, 
  0xf9, 0x33, 0xd5, 0x03, 0xdd, 0xcd, 0x28, 0x29, 0x02, 0x36, 0x0f, 0x66, 
  0x0e, 0x40, 0x37, 0x13, 0xef, 0x5f, 0xf4, 0xe7, 0x18, 0xf7, 0x47, 0x0b, 
  0x5d, 0x34, 0xf7, 0x44, 0x41, 0x5b, 0x5f, 0x3f, 0x33, 0x47, 0x02, 0x3d, 
  0xe5, 0xd0, 0xc7, 0x7a, 0xf6, 0x02, 0xf6, 0x03, 0xed, 0x19, 0x58, 0xe3, 
  0x2a, 0x2a, 0xf5, 0x18, 0xeb, 0x24, 0x03, 0x7f, 0x44, 0x5c, 0xf2, 0x1d, 
  0xd5, 0x36, 0x46, 0xc4, 0xdb, 0x57, 0xf8, 0xfc, 0x16, 0xd9, 0xe2, 0x60, 
  0x59, 0x30, 0x25, 0x06, 0xbd, 0x09, 0xef, 0x25, 0xd1, 0xea, 0xc1, 0x24, 
  0xd6, 0xe6, 0xf1, 0x42, 0x45, 0x30, 0xf2, 0x18, 0xe7, 0x71, 0x22, 0xd2, 
  0xe9, 0x0a, 0xc9, 0x0e, 0x26, 0x08, 0x18, 0x25, 0xfe, 0x35, 0x33, 0x13, 
  0x56, 0x04, 0x42, 0xeb, 0xd3, 0x47, 0xd8, 0x00, 0x52, 0x40, 0x20, 0x0d, 
  0x6d, 0x42, 0xe5, 0x38, 0xe3, 0x5b, 0x21, 0xe5, 0x0c, 0x79, 0x2c, 0xcc, 
  0x03, 0xf7, 0xdc, 0x12, 0xfe, 0x43, 0xed, 0x6b, 0x3a, 0x2d, 0x45, 0x0b, 
  0xf4, 0x50, 0xc1, 0xe3, 0x33, 0xc9, 0x06, 0x3a, 0x49, 0x2a, 0x22, 0x17, 
  0xdd, 0x2b, 0x67, 0x32, 0xdd, 0x60, 0xd2, 0xfb, 0x0c, 0x18, 0x4e, 0x31, 
  0x17, 0x0d, 0xfc, 0x12, 0xd0, 0x45, 0x79, 0xc1, 0xe8, 0x47, 0xfb, 0x08, 
  0xfd, 0xd8, 0x35, 0x61, 0x5b, 0x2b, 0x38, 0x1d, 0x40, 0x01, 0x54, 0x29, 
  0x1b, 0x24, 0xdc, 0x2f, 0x51, 0xf1, 0x25, 0x7f, 0x73, 0x1a, 0xee, 0x5f, 
  0x53, 0x7a, 0x76, 0xed, 0xce, 0xf6, 0x43, 0xf8, 0x2d, 0xe8, 0xf9, 0x26, 
  0xf9, 0x72, 0x02, 0x43, 0xef, 0x29, 0x7f, 0x21, 0x02, 0x46, 0x2a, 0x09, 
  0x51, 0x1e, 0x09, 0x60, 0x1a, 0x34, 0x06, 0x39, 0x2f, 0x2a, 0x05, 0x04, 
  0x20, 0x72, 0x00, 0xfc, 0x2d, 0x3e, 0xf6, 0x4d, 0x59, 0x00, 0x04, 0x20, 
  0xd7, 0x61, 0x5f, 0xde, 0xce, 0x42, 0xef, 0xdb, 0xe7, 0xfc, 0xe0, 0x76, 
  0x7f, 0x0d, 0x11, 0x12, 0x45, 0x2e, 0x06, 0x06, 0xea, 0xf9, 0xb8, 0x18, 
  0x39, 0xef, 0xdd, 0x65, 0x5f, 0x74, 0x27, 0x25, 0xde, 0x00, 0x0a, 0xb7, 
  0xc4, 0x1a, 0xc1, 0xaf, 0x21, 0x0a, 0x39, 0x1c, 0x61, 0x14, 0xbd, 0x64, 
  0xc9, 0x09, 0x73, 0xc7, 0x22, 0xe0, 0xc7, 0x0d, 0xc9, 0x3a, 0xe7, 0x06, 
  0x6c, 0x1e, 0x0f, 0x6d, 0x10, 0x04, 0x61, 0x06, 0x05, 0x35, 0x34, 0xe8, 
  0x08, 0xb7, 0x1a, 0x63, 0x78, 0xea, 0x08, 0x37, 0xf9, 0x1f, 0x70, 0x40, 
  0x06, 0x0b, 0x38, 0xc5, 0x09, 0xdf, 0x13, 0x1a, 0x57, 0x5d, 0x0e, 0x71, 
  0xf3, 0x0c, 0x94, 0x0c, 0x5e, 0xae, 0x3e, 0x28, 0x32, 0xfd, 0x61, 0xbe, 
  0x31, 0x27, 0x0f, 0x1a, 0xea, 0xd3, 0xea, 0xb8, 0x0b, 0xd1, 0xc7, 0x3b, 
  0x3d, 0xf5, 0x39, 0x08, 0x38, 0xb5, 0x3f, 0xe4, 0x0f, 0xa6, 0xa7, 0xef, 
  0x50, 0x0a, 0xeb, 0x45, 0xdd, 0x2d, 0xf1, 0x9c, 0xf0, 0xc7, 0xe6, 0x0f, 
  0xd2, 0xd9, 0x12, 0x17, 0xf0, 0x2c, 0xbd, 0x03, 0x20, 0xe7, 0x05, 0x49, 
  0xc2, 0xd4, 0xef, 0xc5, 0x4c, 0x81, 0xd5, 0xb4, 0x68, 0x0e, 0xc9, 0x35, 
  0x22, 0xfb, 0x39, 0xa5, 0xe5, 0xab, 0xd2, 0xd6, 0x49, 0x0d, 0xa3, 0x39, 
  0x61, 0x05, 0x3f, 0x55, 0x47, 0xcf, 0x63, 0xd2, 0xc9, 0x90, 0xd6, 0x9b, 
  0xdd, 0xff, 0xbc, 0xd0, 0x16, 0x14, 0xcf, 0xd6, 0x4b, 0x2e, 0xd8, 0x03, 
  0xf7, 0x05, 0x32, 0xa9, 0x49, 0xec, 0xdd, 0x40, 0x36, 0xfa, 0xde, 0x47, 
  0x3e, 0xde, 0x0a, 0xcc, 0x14, 0xe2, 0xfc, 0xd7, 0x1c, 0x05, 0x9a, 0xc3, 
  0x55, 0xc4, 0x08, 0x26, 0x17, 0xf7, 0x5c, 0x9e, 0xeb, 0xd2, 0x6b, 0xd1, 
  0x31, 0x25, 0x5e, 0x42, 0xea, 0x36, 0x40, 0x12, 0xee, 0x36, 0x11, 0x23, 
  0xe9, 0x4b, 0x12, 0x16, 0xe9, 0x7d, 0x3e, 0xea, 0x1c, 0x1d, 0xfb, 0x3b, 
  0x28, 0x2a, 0x1b, 0x42, 0x3c, 0x1c, 0x21, 0x2f, 0x40, 0x4f, 0x01, 0x2c, 
  0xf7, 0x53, 0x0d, 0xcf, 0x2a, 0x42, 0xed, 0x2e, 0x53, 0x0c, 0xee, 0x55, 
  0x2a, 0x01, 0x35, 0xf4, 0x3f, 0x4c, 0x09, 0x42, 0xc2, 0x0e, 0x3d, 0x77, 
  0x4f, 0x5e, 0x3d, 0x03, 0x27, 0xe8, 0xea, 0x0e, 0x4b, 0x14, 0x19, 0xd5, 
  0xc7, 0xf4, 0xde, 0x79, 0x3d, 0x1e, 0x18, 0x13, 0xce, 0xff, 0xf8, 0x2e, 
  0x29, 0x63, 0xfa, 0x4b, 0x3b, 0x43, 0xcf, 0x32, 0x39, 0x0b, 0x24, 0xfe, 
  0x43, 0x21, 0xf5, 0xfc, 0xde, 0x48, 0xc9, 0x43, 0xeb, 0xed, 0x16, 0x7f, 
  0x03, 0x07, 0xe9, 0x61, 0x06, 0x08, 0x2d, 0x16, 0x2d, 0x0c, 0x22, 0x43, 
  0x0d, 0x2c, 0x26, 0x01, 0x35, 0x3c, 0x0d, 0x3c, 0x12, 0x31, 0x1d, 0xc3, 
  0x16, 0x78, 0xf7, 0x47, 0x1f, 0x10, 0xd2, 0x61, 0xed, 0x11, 0x17, 0x2a, 
  0xd2, 0x21, 0x72, 0x24, 0xb9, 0xf3, 0x01, 0x3f, 0x16, 0x21, 0x2a, 0x4e, 
  0xfa, 0xb1, 0xbb, 0x27, 0x32, 0x14, 0xca, 0xbd, 0x73, 0x5c, 0x1e, 0xb1, 
  0x0d, 0xe5, 0xad, 0xf3, 0x28, 0x79, 0x68, 0x3c, 0x55, 0xe9, 0xe9, 0x32, 
  0xab, 0x8a, 0x15, 0xe4, 0x1e, 0x87, 0xce, 0xf8, 0x86, 0x76, 0x8a, 0x99, 
  0x4b, 0x87, 0xee, 0x9c, 0xca, 0xd0, 0xfa, 0xb3, 0xa4, 0x37, 0x57, 0xa9, 
  0x72, 0xb6, 0xc6, 0x1d, 0xbf, 0xa3, 0xd8, 0x1f, 0xe5, 0xc4, 0x1f, 0x0c, 
  0x5c, 0x1a, 0xd2, 0x7b, 0xf7, 0xea, 0xfa, 0x28, 0xb2, 0xd0, 0xa0, 0x65, 
  0x81, 0x9d, 0x35, 0x27, 0x24, 0xff, 0x56, 0x6b, 0x40, 0xa3, 0xa4, 0xf3, 
  0xa6, 0x30, 0xc4, 0xc9, 0x96, 0xbf, 0xc6, 0x12, 0x67, 0x0a, 0x9d, 0x54, 
  0x49, 0xf2, 0xc1, 0x6c, 0x3b, 0xd8, 0xc3, 0xf8, 0xa6, 0x4e, 0xb2, 0x30, 
  0xd2, 0x9d, 0xc1, 0xd1, 0xec, 0xba, 0x89, 0x15, 0xe3, 0x0c, 0x8b, 0x70, 
  0xd3, 0xca, 0xd0, 0xa2, 0x39, 0x11, 0xef, 0x70, 0xc3, 0xd6, 0xfe, 0x2a, 
  0x7c, 0xc5, 0xbd, 0xd1, 0x68, 0x64, 0xe4, 0x28, 0x65, 0xd0, 0x54, 0x4c, 
  0x1b, 0x2d, 0x32, 0xfe, 0x06, 0xf9, 0xf0, 0x3e, 0x6e, 0x6d, 0x07, 0x47, 
  0x67, 0x40, 0x06, 0x2b, 0x2c, 0x74, 0x13, 0xf4, 0x6e, 0x94, 0xc6, 0xc9, 
  0xe1, 0x5e, 0x24, 0x6e, 0x43, 0x4e, 0x2f, 0xbd, 0xd8, 0x39, 0x4e, 0x57, 
  0x72, 0x17, 0xfb, 0xd2, 0xd9, 0x25, 0xbe, 0xde, 0x40, 0xcb, 0x3f, 0xed, 
  0x17, 0x73, 0xd3, 0x01, 0x73, 0xc0, 0x24, 0xc2, 0x78, 0x05, 0x49, 0x4a, 
  0x2c, 0xbc, 0xf9, 0x49, 0xe0, 0x55, 0x03, 0x01, 0x05, 0xd7, 0xba, 0x42, 
  0x70, 0x07, 0xef, 0x0c, 0x30, 0x50, 0x7f, 0xc2, 0xfa, 0x68, 0x18, 0xe0, 
  0x1b, 0xe2, 0xcd, 0xb1, 0xdb, 0x3d, 0xf2, 0x63, 0x05, 0x50, 0x4b, 0xf2, 
  0xeb, 0x2f, 0x06, 0x2d, 0xdc, 0x1e, 0xc6, 0xf5, 0xf1, 0xe2, 0x2c, 0x23, 
  0xe8, 0xd8, 0x28, 0xcb, 0xfd, 0x02, 0x55, 0xc2, 0x5f, 0xd6, 0xbe, 0xc2, 
  0x4e, 0x3c, 0x01, 0xfe, 0x14, 0xe1, 0x46, 0x1e, 0xc2, 0x04, 0x45, 0xea, 
  0x10, 0x81, 0x01, 0x13, 0x05, 0xf6, 0x35, 0xdd, 0xd7, 0x32, 0x67, 0x1d, 
  0xf1, 0x49, 0xdc, 0xbe, 0xde, 0xf3, 0x06, 0xc2, 0x4c, 0x4f, 0xf3, 0x54, 
  0x2b, 0x24, 0x1c, 0xa5, 0xeb, 0xa1, 0xe4, 0xbc, 0x46, 0xcd, 0xe0, 0xd5, 
  0x39, 0xf0, 0x37, 0x4a, 0x4d, 0x2c, 0x33, 0x16, 0xbe, 0x29, 0xfa, 0x14, 
  0x4a, 0xbb, 0x04, 0xe7, 0xc4, 0xeb, 0xe0, 0x32, 0x28, 0xbb, 0x25, 0xca, 
  0xfb, 0xf7, 0x08, 0xb7, 0xf8, 0xa6, 0x91, 0x51, 0xdc, 0x21, 0xca, 0xd6, 
  0x3b, 0xe6, 0x5f, 0xf1, 0x16, 0x9f, 0x05, 0x9f, 0x41, 0xa4, 0xa8, 0xe7, 
  0x0b, 0xe6, 0xd3, 0x50, 0xda, 0x11, 0x0a, 0xfe, 0x3a, 0xdb, 0x45, 0xbc, 
  0xf0, 0xa1, 0xe9, 0xe5, 0x57, 0xfc, 0x2f, 0x09, 0xe3, 0x15, 0x3d, 0xb4, 
  0xdd, 0xe7, 0x4b, 0xd0, 0x01, 0xfe, 0xf7, 0xd6, 0x58, 0xe6, 0x0c, 0xcc, 
  0x08, 0x17, 0x14, 0x31, 0xd2, 0xee, 0x55, 0xf5, 0x5c, 0x08, 0x9b, 0x41, 
  0x55, 0x41, 0xfa, 0x35, 0xe3, 0x49, 0x4f, 0xfb, 0x1a, 0xc7, 0xf1, 0xdd, 
  0x04, 0x0e, 0x1f, 0xf5, 0x16, 0x40, 0x39, 0x21, 0xe2, 0x1a, 0x36, 0x77, 
  0x38, 0x07, 0x30, 0x63, 0xcb, 0x21, 0x65, 0xf8, 0xe8, 0x09, 0xd4, 0x3b, 
  0x0b, 0xff, 0xf6, 0x7f, 0x15, 0x50, 0x42, 0xf4, 0xcb, 0x16, 0x4a, 0xe4, 
  0xd5, 0x4a, 0xe3, 0xd7, 0x0a, 0x23, 0x0f, 0x5c, 0x20, 0x5c, 0xeb, 0x6a, 
  0x19, 0x7e, 0x52, 0x26, 0xda, 0x0d, 0x39, 0x1f, 0x1a, 0x02, 0x2a, 0xf2, 
  0x35, 0x54, 0xd8, 0x6f, 0x34, 0x1e, 0x63, 0xd9, 0x08, 0xff, 0x21, 0x2a, 
  0x23, 0xcb, 0xec, 0xfa, 0x64, 0x3b, 0xde, 0x16, 0x37, 0x2e, 0x0e, 0x09, 
  0xf9, 0x44, 0xe0, 0x17, 0x3d, 0xfc, 0x3b, 0x31, 0x08, 0x63, 0x18, 0x21, 
  0x17, 0x49, 0x39, 0x0d, 0xc9, 0x43, 0xdd, 0x0e, 0xdc, 0x1b, 0x00, 0x7a, 
  0x60, 0x45, 0xc9, 0xfc, 0xd1, 0x6f, 0x20, 0xed, 0xc3, 0xec, 0x1a, 0xe1, 
  0xed, 0x0d, 0x23, 0x6b, 0x23, 0x09, 0xe2, 0x50, 0xe0, 0x44, 0x65, 0x15, 
  0xb9, 0x15, 0xf4, 0xf0, 0x36, 0x0a, 0x30, 0x55, 0x58, 0x48, 0x25, 0x5a, 
  0xc7, 0x1e, 0x23, 0x28, 0x33, 0x52, 0xf0, 0x1e, 0x1b, 0xc7, 0x1a, 0x52, 
  0xe7, 0x53, 0x09, 0x44, 0x36, 0x50, 0xf8, 0xc4, 0xc4, 0x68, 0xf4, 0x2d, 
  0xde, 0xe9, 0x35, 0xfc, 0x53, 0x70, 0x2e, 0x07, 0x37, 0x73, 0x31, 0x31, 
  0xc0, 0x0f, 0xfc, 0x1c, 0xef, 0xc1, 0xba, 0x34, 0x11, 0x25, 0xe3, 0x3c, 
  0xd2, 0x35, 0x1e, 0x2d, 0x1d, 0x38, 0xf1, 0xe9, 0xd4, 0x1e, 0xe9, 0x19, 
  0x47, 0x4f, 0x3a, 0x18, 0x05, 0x36, 0x25, 0xf1, 0x1a, 0x58, 0x1d, 0xd6, 
  0x1d, 0xe8, 0x1a, 0x20, 0x36, 0x32, 0xcc, 0x3d, 0xf3, 0x5a, 0x3e, 0xc7, 
  0xd0, 0x70, 0x19, 0x1b, 0x22, 0xe2, 0xfb, 0x3a, 0x1f, 0x7d, 0x09, 0x6d, 
  0xf2, 0x2d, 0xfb, 0xdd, 0xca, 0x3e, 0x09, 0x22, 0xcb, 0x19, 0x26, 0x33, 
  0xfb, 0x0f, 0x36, 0xef, 0xc9, 0x50, 0x5b, 0xda, 0x1d, 0xf6, 0x0b, 0x1a, 
  0x14, 0x3a, 0x34, 0x17, 0x12, 0x3e, 0x2d, 0x08, 0xe8, 0x2a, 0xf0, 0xf3, 
  0x0f, 0x2d, 0xfe, 0x2a, 0xfc, 0x0b, 0xd6, 0x7f, 0x6e, 0x66, 0xfd, 0x0e, 
  0x44, 0x73, 0x51, 0x22, 0x35, 0x01, 0xeb, 0x3e, 0x54, 0xd2, 0x00, 0x4d, 
  0xed, 0x68, 0xca, 0x3f, 0x04, 0x05, 0x5a, 0xd2, 0x11, 0x07, 0x23, 0xdc, 
  0x19, 0xc9, 0x06, 0x60, 0x30, 0xfa, 0x00, 0x39, 0x1d, 0x62, 0x09, 0xce, 
  0x36, 0x29, 0xd7, 0x28, 0xe2, 0x20, 0x37, 0x4a, 0x50, 0x1d, 0xd0, 0x71, 
  0x16, 0x14, 0x63, 0x00, 0xf7, 0x34, 0xe5, 0xdf, 0x44, 0xf3, 0xd8, 0x55, 
  0x4b, 0x2f, 0x1e, 0x57, 0x23, 0x02, 0x3d, 0x3b, 0xfd, 0x75, 0xd1, 0x40, 
  0xe4, 0xca, 0xcc, 0x2d, 0x65, 0x2d, 0xca, 0x6c, 0xcd, 0x08, 0x4f, 0x19, 
  0x0d, 0x2a, 0x28, 0xd3, 0x08, 0x1a, 0x0a, 0x51, 0x50, 0x2d, 0xd1, 0x4d, 
  0xe5, 0xe9, 0x19, 0xf2, 0x05, 0x23, 0xe9, 0x1e, 0xd0, 0x2d, 0x22, 0x26, 
  0x6e, 0x11, 0x2a, 0x49, 0xbc, 0x21, 0x5b, 0x25, 0xcb, 0x2e, 0xba, 0xf6, 
  0xed, 0xfe, 0x03, 0x60, 0xff, 0x1d, 0x30, 0x64, 0xba, 0x2e, 0xec, 0x43, 
  0x02, 0x63, 0x2e, 0xf4, 0x05, 0x05, 0xcd, 0x7a, 0x7f, 0x52, 0x05, 0x10, 
  0x21, 0x3e, 0x19, 0xda, 0xd7, 0x49, 0x07, 0xd8, 0xce, 0x35, 0xda, 0x0d, 
  0x66, 0x0b, 0x3d, 0x5c, 0xe4, 0x01, 0x3d, 0xc2, 0xc8, 0x02, 0x3a, 0xe6, 
  0x47, 0x0f, 0xc9, 0x45, 0x2d, 0x44, 0x16, 0x2c, 0xcb, 0xed, 0x1f, 0xf6, 
  0x23, 0x05, 0xe6, 0xf9, 0xfb, 0xcd, 0xe7, 0x50, 0x7d, 0x53, 0x03, 0x65, 
  0x2e, 0x6f, 0x51, 0x08, 0xfa, 0x09, 0xbe, 0x03, 0xe1, 0x24, 0xf0, 0x11, 
  0x34, 0x7f, 0x3e, 0x56, 0x49, 0x08, 0x22, 0x04, 0x1f, 0xff, 0xd3, 0xd4, 
  0x2f, 0xfc, 0x0d, 0x26, 0x3f, 0x42, 0x03, 0x44, 0xe4, 0x0b, 0x4b, 0xdd, 
  0xc8, 0x08, 0xc7, 0x0a, 0x00, 0xf2, 0x0f, 0x09, 0x21, 0x7f, 0xd0, 0x3c, 
  0x12, 0x69, 0x71, 0xfe, 0x45, 0xf6, 0xfd, 0x42, 0x37, 0x1a, 0x20, 0x4d, 
  0x0f, 0x30, 0x14, 0x3d, 0xee, 0xf8, 0x32, 0x20, 0x2c, 0xf9, 0xfb, 0x0d, 
  0x54, 0xcc, 0xd9, 0x63, 0x59, 0x5b, 0xf9, 0x24, 0x1c, 0x77, 0x54, 0x30, 
  0xde, 0x5a, 0x3c, 0xfe, 0x57, 0x24, 0xfe, 0x6b, 0x05, 0x6e, 0xef, 0x13, 
  0x40, 0x13, 0xfe, 0xfc, 0xfe, 0x67, 0xdc, 0xce, 0x1c, 0x01, 0xf2, 0x7f, 
  0x3b, 0x2e, 0x41, 0x4c, 0x35, 0x54, 0x09, 0x2f, 0xc1, 0x2c, 0xcb, 0x2e, 
  0x26, 0x3f, 0xc3, 0x54, 0x02, 0x53, 0x11, 0x6c, 0xd1, 0x2b, 0x5f, 0x23, 
  0x16, 0x75, 0xcc, 0x16, 0xd4, 0x3d, 0xe0, 0x73, 0x30, 0x4f, 0x1a, 0x48, 
  0xe7, 0x4d, 0x2d, 0xc3, 0x28, 0x17, 0xcc, 0x20, 0x15, 0xdb, 0xd8, 0x7b, 
  0x1b, 0x66, 0x01, 0x6b, 0x02, 0x31, 0x48, 0x0a, 0x24, 0x00, 0xc0, 0xc9, 
  0xc5, 0x20, 0x1d, 0x66, 0x0b, 0x0d, 0xf0, 0x20, 0x07, 0x41, 0x34, 0x22, 
  0x1d, 0xfa, 0x06, 0x28, 0xd7, 0x32, 0x37, 0x72, 0x0c, 0x00, 0xd1, 0x19, 
  0x2e, 0x3d, 0x0f, 0xcc, 0x30, 0x20, 0xf7, 0xdb, 0x0b, 0xe5, 0x05, 0x50, 
  0xea, 0x41, 0x1f, 0x19, 0x3f, 0x1f, 0x6e, 0x39, 0x0b, 0x68, 0xc2, 0x05, 
  0x39, 0x3b, 0x34, 0x3c, 0xff, 0x2f, 0x31, 0xf7, 0x20, 0x04, 0x19, 0xd0, 
  0xb9, 0x36, 0x2f, 0x12, 0x22, 0xeb, 0x18, 0x28, 0xfb, 0x27, 0xc3, 0x0a, 
  0xe2, 0x7f, 0x1b, 0xca, 0x06, 0x7e, 0x3d, 0xe5, 0xe0, 0xee, 0xdc, 0x33, 
  0x36, 0x58, 0x19, 0x35, 0xd7, 0x76, 0x2a, 0x1f, 0xf3, 0x27, 0x43, 0x3f, 
  0x40, 0xe3, 0x15, 0x02, 0x57, 0x6e, 0x38, 0x45, 0xea, 0x4c, 0x5a, 0xf4, 
  0xe1, 0x18, 0x17, 0x1f, 0x46, 0x0f, 0xe6, 0x40, 0x41, 0x76, 0xe5, 0x7a, 
  0x47, 0x58, 0x38, 0xe3, 0xd9, 0xfb, 0xfe, 0xea, 0xe9, 0xe7, 0xe3, 0x37, 
  0x3c, 0x20, 0xdf, 0x62, 0xff, 0x3a, 0x0f, 0x2e, 0xcf, 0xec, 0x16, 0x2f, 
  0xca, 0x29, 0xd5, 0x46, 0x5f, 0x63, 0xd4, 0x58, 0xd6, 0x14, 0x5d, 0x42, 
  0x1d, 0x16, 0x3e, 0x36, 0xc7, 0x3a, 0xf7, 0x5a, 0x01, 0x48, 0xcd, 0x58, 
  0x1e, 0x08, 0x48, 0xdf, 0x1c, 0x62, 0x3f, 0x57, 0x03, 0x29, 0x41, 0x02, 
  0x23, 0x1b, 0xf8, 0x4c, 0xda, 0x4e, 0x4e, 0x12, 0x2d, 0x65, 0xda, 0xe4, 
  0x08, 0x36, 0x35, 0x6e, 0x4f, 0x32, 0xcd, 0x61, 0x29, 0x55, 0x60, 0x43, 
  0x08, 0x4b, 0xd2, 0x40, 0xe5, 0x23, 0xc3, 0x62, 0x07, 0x46, 0xf4, 0x38, 
  0xde, 0x45, 0x15, 0x38, 0xdf, 0x6e, 0x03, 0xef, 0xdd, 0x01, 0xea, 0x39, 
  0x0f, 0x12, 0x0b, 0x31, 0x43, 0x2f, 0x3e, 0x22, 0x15, 0x1f, 0x10, 0xf7, 
  0x45, 0x28, 0x1e, 0x78, 0x2e, 0x25, 0x21, 0x37, 0x23, 0x04, 0x4b, 0x3e, 
  0x20, 0x6c, 0x14, 0xff, 0xeb, 0xc8, 0xf9, 0x0a, 0x5f, 0x15, 0x28, 0x1e, 
  0xdb, 0x59, 0xfc, 0x17, 0xfb, 0x21, 0xc6, 0xce, 0xf3, 0xd8, 0x3c, 0x71, 
  0x64, 0x60, 0x15, 0x27, 0xf8, 0x3c, 0x58, 0xec, 0xc1, 0x47, 0xfe, 0x1a, 
  0x34, 0xf2, 0x39, 0x5e, 0x12, 0x4f, 0x3a, 0x1c, 0xb2, 0x4d, 0xe9, 0xe8, 
  0xcb, 0xfe, 0xe1, 0x0a, 0xf8, 0xe8, 0xe4, 0x2e, 0x01, 0x29, 0xf5, 0x79, 
  0xfa, 0x6a, 0x12, 0x1f, 0x20, 0x38, 0xf9, 0x3c, 0x0b, 0x2b, 0x0e, 0x6b, 
  0x17, 0x33, 0x2b, 0x4d, 0xc3, 0x57, 0x52, 0x05, 0xc5, 0x54, 0xe0, 0x07, 
  0x38, 0xf5, 0x14, 0x4d, 0x0a, 0x08, 0x42, 0x27, 0x10, 0xfa, 0x3c, 0xdd, 
  0xf3, 0x7e, 0x00, 0x1c, 0xe7, 0x0e, 0x0d, 0x7f, 0x20, 0x23, 0x04, 0x2d, 
  0xdb, 0xe8, 0x50, 0x11, 0x07, 0x04, 0x04, 0x4a, 0x26, 0xfd, 0xe0, 0x4d, 
  0x1d, 0x1d, 0xed, 0x4b, 0xc3, 0x2a, 0x41, 0xf1, 0xf7, 0x43, 0xf1, 0xe3, 
  0xea, 0xcf, 0xe6, 0x61, 0x2b, 0x5d, 0xe9, 0x0a, 0xbf, 0x23, 0x14, 0x42, 
  0x12, 0xe0, 0x33, 0xe6, 0xc7, 0x23, 0xe8, 0x21, 0x0d, 0x08, 0xfd, 0x26, 
  0xf5, 0x48, 0x6c, 0x38, 0xf1, 0x6e, 0x21, 0x08, 0x46, 0xe7, 0x10, 0x4d, 
  0x2c, 0x42, 0x29, 0x13, 0x4f, 0xfe, 0x70, 0x1e, 0x33, 0x6d, 0x0b, 0xc8, 
  0x15, 0x35, 0xd3, 0x60, 0x70, 0x7f, 0x0d, 0xf4, 0x1d, 0x57, 0x60, 0x25, 
  0x2b, 0xff, 0xe0, 0x0f, 0x09, 0xe6, 0x34, 0x27, 0x1c, 0x2f, 0x06, 0x4c, 
  0x1f, 0x45, 0x02, 0x08, 0x45, 0xfa, 0xe2, 0xf7, 0x09, 0x2b, 0x0a, 0x5b, 
  0x6e, 0x38, 0x2a, 0x56, 0x17, 0x1e, 0x40, 0xbc, 0x0b, 0x52, 0xe1, 0xec, 
  0x2b, 0xee, 0xc2, 0x60, 0x5d, 0x66, 0xc5, 0x28, 0xc1, 0x56, 0xff, 0x0f, 
  0x1f, 0xff, 0x12, 0x04, 0xf1, 0x35, 0x07, 0x62, 0x39, 0x4d, 0x14, 0x64, 
  0x09, 0x64, 0x63, 0x13, 0x23, 0x55, 0x38, 0xc3, 0x09, 0xe4, 0xfd, 0x28, 
  0x3f, 0x12, 0x21, 0x2b, 0xc3, 0x2d, 0x53, 0x37, 0xea, 0x69, 0xee, 0x0a, 
  0x1f, 0x34, 0x13, 0x7f, 0x4b, 0xfc, 0xc9, 0x06, 0x39, 0x64, 0x2f, 0x15, 
  0xf2, 0x57, 0x0f, 0x12, 0x19, 0xd5, 0xce, 0x74, 0x42, 0x59, 0xfb, 0x05, 
  0x33, 0x41, 0x69, 0xbe, 0xf9, 0x41, 0xf9, 0xeb, 0x01, 0x3a, 0x1a, 0x62, 
  0x39, 0x51, 0xf5, 0x61, 0xcc, 0x2c, 0x15, 0xcd, 0xdc, 0x4b, 0x36, 0x46, 
  0x3a, 0xfa, 0xda, 0x58, 0xfb, 0x40, 0x40, 0xea, 0x0d, 0x01, 0x4a, 0xbf, 
  0x2d, 0x39, 0xea, 0xd0, 0x43, 0x0d, 0xd6, 0x5d, 0x59, 0x2d, 0xc1, 0x04, 
  0x1e, 0x3c, 0x5c, 0x2f, 0x36, 0xf4, 0xc7, 0xc7, 0x05, 0xd7, 0x31, 0x17, 
  0x66, 0x52, 0x1c, 0x61, 0x05, 0x4c, 0x42, 0xc3, 0x11, 0x57, 0x11, 0xc8, 
  0x0c, 0x24, 0xe8, 0x44, 0x39, 0x4f, 0x22, 0x1c, 0xed, 0x2f, 0x47, 0xd5, 
  0xe8, 0x14, 0xcb, 0x20, 0x22, 0xcc, 0x19, 0x50, 0x6d, 0x35, 0xe3, 0x39, 
  0x3a, 0xc7, 0x61, 0xc9, 0x61, 0x1a, 0x46, 0x0b, 0x1a, 0x17, 0x43, 0xdd, 
  0x3c, 0x4e, 0x4e, 0xd8, 0x17, 0xfa, 0x54, 0xfc, 0xf0, 0xda, 0xd7, 0xfd, 
  0x6d, 0x0b, 0x7e, 0xe2, 0x04, 0x1f, 0x4b, 0x1d, 0x47, 0xac, 0x36, 0x07, 
  0x2d, 0xfa, 0xd5, 0x7d, 0x41, 0xde, 0x6a, 0x22, 0xf6, 0x33, 0xd7, 0xe7, 
  0xf2, 0xcf, 0x68, 0xec, 0x4c, 0x5e, 0xb4, 0x62, 0x58, 0xf5, 0x45, 0xf4, 
  0xcd, 0x40, 0x21, 0x36, 0x66, 0x09, 0x0d, 0xc6, 0x45, 0x62, 0x2c, 0x74, 
  0xeb, 0x4e, 0x3a, 0xdc, 0x41, 0x4a, 0x17, 0x1b, 0xef, 0x2e, 0x14, 0xe4, 
  0xe4, 0x24, 0xf2, 0x19, 0x36, 0x32, 0xfb, 0x2b, 0x59, 0x60, 0x75, 0x60, 
  0x65, 0x19, 0xdb, 0xc9, 0x26, 0x79, 0xc5, 0x7b, 0x4e, 0xf6, 0x7f, 0x71, 
  0x5f, 0xf8, 0x17, 0xde, 0xe7, 0x0b, 0xdb, 0x1b, 0x6b, 0xf9, 0xd9, 0xed, 
  0x26, 0x1e, 0x68, 0xce, 0xc9, 0x5a, 0x69, 0x5c, 0x1a, 0x27, 0x56, 0xf3, 
  0x5f, 0x7c, 0x2f, 0x09, 0x41, 0xdd, 0x74, 0xe6, 0xf3, 0x1a, 0x73, 0xf3, 
  0x3a, 0x74, 0x50, 0x1b, 0x25, 0x56, 0x20, 0xef, 0x3f, 0x10, 0x2d, 0x57, 
  0x4a, 0xfc, 0x37, 0x45, 0x07, 0x58, 0x56, 0xe4, 0x16, 0x65, 0xe9, 0x39, 
  0xeb, 0xdd, 0x21, 0x60, 0x53, 0x16, 0x09, 0xff, 0xec, 0xf6, 0x45, 0x2a, 
  0xd8, 0x38, 0x16, 0x0b, 0x1a, 0x1f, 0x2a, 0x2e, 0x26, 0x7a, 0x1e, 0x10, 
  0xf8, 0x38, 0x42, 0xfa, 0x1c, 0x21, 0x14, 0xf4, 0x49, 0x0b, 0x45, 0x62, 
  0x12, 0x3d, 0xdd, 0x4c, 0xd0, 0x1b, 0x72, 0x26, 0xe8, 0x28, 0x3f, 0x3b, 
  0x05, 0xcd, 0xf6, 0x64, 0x06, 0x5c, 0x1c, 0x62, 0xe2, 0x11, 0x51, 0x3d, 
  0x0c, 0x30, 0xc3, 0xe0, 0x18, 0x3f, 0x2b, 0x33, 0x34, 0x7f, 0x36, 0x79, 
  0x0a, 0x23, 0x5e, 0x21, 0xcb, 0x26, 0x02, 0xdf, 0x19, 0x12, 0xdd, 0x4e, 
  0x31, 0x56, 0x17, 0xf9, 0xcf, 0x67, 0x51, 0xe2, 0xc9, 0x4c, 0xe7, 0x0a, 
  0xd1, 0x08, 0xec, 0x72, 0x67, 0x4b, 0x41, 0x71, 0xf0, 0x61, 0x29, 0xd8, 
  0xc6, 0x69, 0xec, 0x2d, 0x11, 0xd7, 0xdf, 0x70, 0x5f, 0x28, 0xcd, 0x14, 
  0xc7, 0x55, 0x67, 0xe8, 0xdc, 0x32, 0xf9, 0x07, 0x1c, 0xeb, 0x34, 0x5d, 
  0xf7, 0x34, 0xdb, 0x22, 0xe4, 0x0c, 0x1c, 0x0d, 0x15, 0x29, 0xcb, 0xc9, 
  0xd4, 0xea, 0x35, 0x6a, 0x42, 0x00, 0x3b, 0x45, 0x1b, 0x45, 0x3b, 0x13, 
  0x06, 0x1a, 0xce, 0xdb, 0x21, 0xc1, 0x15, 0x41, 0x49, 0x7f, 0xeb, 0x2c, 
  0x45, 0x3d, 0x0b, 0xec, 0x06, 0x36, 0xfb, 0x18, 0xd8, 0x29, 0xec, 0x0d, 
  0xf0, 0x0f, 0x31, 0x15, 0xfe, 0x61, 0x27, 0xce, 0xf9, 0x2e, 0x3f, 0xc5, 
  0x40, 0xd6, 0x26, 0x37, 0x33, 0x31, 0x34, 0x21, 0x19, 0x6c, 0x75, 0x42, 
  0xf7, 0x4d, 0xe6, 0xc2, 0x50, 0x15, 0x39, 0x41, 0x0a, 0x03, 0xde, 0x42, 
  0x2a, 0x24, 0x23, 0x1b, 0x08, 0xff, 0xd6, 0x10, 0xe9, 0xef, 0xbf, 0x67, 
  0x4b, 0x7b, 0x2d, 0x4b, 0xd9, 0x01, 0x1f, 0xce, 0xea, 0xea, 0xc5, 0x15, 
  0xbc, 0xec, 0x16, 0x48, 0x2e, 0x4e, 0xf7, 0xe6, 0xd9, 0x34, 0x5b, 0xc0, 
  0xd2, 0x2e, 0xdb, 0x27, 0xea, 0xd5, 0xde, 0x0c, 0x76, 0x02, 0xd9, 0x1c, 
  0x32, 0xdc, 0xf3, 0xe9, 0x2e, 0x23, 0xca, 0x08, 0xf8, 0xff, 0x37, 0xf2, 
  0xb7, 0x13, 0xd8, 0xd3, 0xdb, 0x02, 0xf1, 0x00, 0x08, 0x98, 0xc6, 0x1d, 
  0x08, 0x30, 0x1b, 0x03, 0xc7, 0xa7, 0x03, 0xf4, 0x2e, 0xe1, 0x81, 0xd2, 
  0x2b, 0x8a, 0xcc, 0xef, 0x0b, 0x1f, 0x34, 0xb9, 0x00, 0x8f, 0xea, 0x8c, 
  0x26, 0xa7, 0xcb, 0xf0, 0x18, 0xff, 0xc2, 0x09, 0x06, 0x33, 0xed, 0x9e, 
  0xd5, 0xab, 0x12, 0xbe, 0xd2, 0xb0, 0xca, 0x13, 0x15, 0xe9, 0xe8, 0xdd, 
  0x0a, 0x2a, 0xde, 0xab, 0x20, 0xce, 0xf2, 0xd7, 0x44, 0xdb, 0xb9, 0xe0, 
  0x20, 0xce, 0x22, 0x26, 0xfa, 0x2c, 0x16, 0xa5, 0xb1, 0xcb, 0x46, 0xd9, 
  0xcb, 0x9f, 0xd8, 0x41, 0x46, 0xf4, 0x29, 0xd2, 0xd2, 0x1e, 0x0a, 0x09, 
  0xa2, 0x1e, 0xd5, 0x98, 0x3b, 0xeb, 0xf1, 0xc7, 0x38, 0xd3, 0x41, 0x0b, 
  0xfa, 0x2c, 0x0a, 0xea, 0xa1, 0x9d, 0xdc, 0x8b, 0xf5, 0xee, 0xdf, 0x32, 
  0x41, 0xd7, 0x05, 0x36, 0xe7, 0x28, 0x4b, 0xb9, 0x16, 0x20, 0x03, 0xec, 
  0xc3, 0x33, 0x5f, 0xdf, 0xc0, 0x3f, 0x20, 0x0d, 0x23, 0xfb, 0xf6, 0xff, 
  0x49, 0x2a, 0x05, 0x4e, 0x39, 0x37, 0xef, 0x1b, 0x2e, 0x12, 0x05, 0x01, 
  0xcf, 0xf0, 0xd1, 0x0d, 0x6f, 0x2d, 0x25, 0x27, 0x14, 0x6a, 0x65, 0x05, 
  0x04, 0x19, 0x24, 0xf2, 0x28, 0xec, 0xbc, 0x12, 0x3c, 0x64, 0x3f, 0x09, 
  0x38, 0x11, 0x60, 0xc7, 0xec, 0x61, 0xe9, 0x2e, 0xe3, 0xc4, 0x35, 0x49, 
  0x3c, 0x0c, 0x13, 0x5e, 0x06, 0x32, 0x3e, 0x2a, 0xfa, 0x08, 0xc3, 0x2b, 
  0x1b, 0xe9, 0xcb, 0x0d, 0xf3, 0x3d, 0xda, 0xf7, 0x37, 0x57, 0x28, 0xf0, 
  0xf0, 0x04, 0xc3, 0x15, 0xea, 0x40, 0x07, 0x32, 0x2e, 0x30, 0xff, 0x67, 
  0xee, 0x68, 0x1e, 0x2a, 0x27, 0x3f, 0xd2, 0x39, 0x2c, 0xed, 0xd4, 0x61, 
  0x68, 0x17, 0x22, 0x29, 0x35, 0xf5, 0x1f, 0x37, 0xcf, 0xd3, 0x19, 0x03, 
  0x22, 0x15, 0x01, 0x7f, 0x1a, 0x41, 0x24, 0xe1, 0xbc, 0x17, 0x3b, 0xe5, 
  0xf2, 0x22, 0x20, 0xee, 0xee, 0xea, 0xe0, 0x5d, 0x71, 0x25, 0xf5, 0x16, 
  0xfe, 0xe6, 0x03, 0xeb, 0xdb, 0x11, 0xd4, 0xf0, 0x3f, 0x1e, 0xd0, 0x7f, 
  0x5c, 0x42, 0xd8, 0xee, 0xe3, 0x1c, 0x11, 0x1f, 0xd6, 0x10, 0xc1, 0x15, 
  0xd4, 0xd2, 0xbf, 0x33, 0xe1, 0x36, 0x01, 0x5a, 0x08, 0x14, 0x28, 0xc4, 
  0xf6, 0x00, 0x18, 0xf9, 0xf0, 0x37, 0xee, 0x12, 0xf1, 0x76, 0x08, 0x24, 
  0x03, 0x2f, 0x3e, 0xd0, 0xd0, 0x43, 0x33, 0x14, 0xf3, 0x1c, 0xdb, 0x4c, 
  0x2b, 0x73, 0x16, 0x5e, 0xe9, 0x17, 0x3d, 0x04, 0x0a, 0x34, 0xf5, 0xf5, 
  0x16, 0xd6, 0x32, 0x64, 0x35, 0x16, 0x3a, 0xd7, 0xf2, 0x56, 0x54, 0xd5, 
  0x1f, 0x69, 0xf4, 0x29, 0x48, 0x3e, 0x31, 0x22, 0x36, 0x2f, 0x42, 0x30, 
  0xcf, 0x60, 0x46, 0xd3, 0x09, 0x7d, 0xbf, 0xf2, 0x16, 0x08, 0x3f, 0x2f, 
  0x32, 0x46, 0x34, 0x62, 0x29, 0x62, 0xea, 0x2d, 0x39, 0x50, 0x1a, 0x1c, 
  0x04, 0xe6, 0xd2, 0x11, 0x55, 0x4e, 0x19, 0x0c, 0xf4, 0x6b, 0x5e, 0x37, 
  0x03, 0x0a, 0x05, 0x3e, 0xe7, 0x2d, 0x08, 0x0c, 0x61, 0x66, 0x3d, 0x66, 
  0xf4, 0x65, 0x7d, 0xdc, 0x01, 0x53, 0xe6, 0xfc, 0x47, 0x12, 0xd8, 0x13, 
  0x19, 0x70, 0x37, 0x78, 0xf3, 0x2c, 0x65, 0xcc, 0x3b, 0xf1, 0xd1, 0xdf, 
  0xd3, 0x13, 0x06, 0x29, 0x67, 0x5c, 0xe5, 0x3c, 0xf1, 0x59, 0x2c, 0xbd, 
  0x16, 0x59, 0x0b, 0xeb, 0x0b, 0xce, 0xd8, 0x7a, 0x4b, 0x7c, 0x40, 0x67, 
  0x39, 0x40, 0x0f, 0xbe, 0xfc, 0x02, 0xe2, 0xcd, 0xf6, 0xda, 0x15, 0x55, 
  0x2f, 0x1b, 0xda, 0x77, 0x3c, 0xf8, 0x6c, 0x32, 0x41, 0x42, 0xeb, 0x06, 
  0x35, 0x42, 0x13, 0x63, 0x66, 0x0e, 0x38, 0x35, 0xf9, 0x06, 0x13, 0x3d, 
  0x03, 0x25, 0xc4, 0xc0, 0x10, 0x18, 0xc7, 0x5f, 0x0c, 0x53, 0xd2, 0x71, 
  0x0f, 0x72, 0x39, 0x0d, 0xe5, 0x0d, 0x05, 0x34, 0xd5, 0x28, 0xe9, 0x77, 
  0x24, 0x65, 0x34, 0x4a, 0x41, 0x50, 0x03, 0x25, 0xdf, 0x22, 0xfc, 0xd9, 
  0x49, 0xd3, 0x03, 0x7f, 0x56, 0x46, 0x49, 0xea, 0x07, 0x66, 0x72, 0x0c, 
  0xbc, 0x3d, 0x33, 0xeb, 0x06, 0xe0, 0xc5, 0x35, 0x53, 0x7a, 0x35, 0x4c, 
  0x13, 0x50, 0x18, 0xf6, 0xca, 0x08, 0xf2, 0xc3, 0xf0, 0xef, 0x27, 0x09, 
  0x61, 0x0c, 0x04, 0x37, 0xd3, 0x46, 0x4b, 0x32, 0xe2, 0x3d, 0x18, 0xf5, 
  0x2f, 0xd6, 0xdd, 0xfd, 0x3c, 0x17, 0x08, 0x14, 0xf2, 0x2e, 0x5d, 0xcb, 
  0x11, 0x39, 0xda, 0xc2, 0x06, 0xc3, 0xc9, 0x74, 0xf6, 0x30, 0x14, 0x1c, 
  0x00, 0xed, 0x6f, 0x15, 0xf2, 0x42, 0x24, 0x43, 0xe0, 0x2a, 0x10, 0x44, 
  0x47, 0x20, 0x2b, 0x2c, 0xef, 0x04, 0x4c, 0xd5, 0x21, 0xf3, 0xdd, 0xfd, 
  0xe8, 0x3a, 0x32, 0x27, 0x21, 0x6d, 0x23, 0x27, 0xee, 0x52, 0x7f, 0xdd, 
  0xdd, 0x56, 0x19, 0xcf, 0x05, 0x3f, 0xc7, 0x23, 0x3b, 0x7c, 0x14, 0x4d, 
  0x2c, 0x4d, 0x44, 0x3c, 0x06, 0x23, 0xc0, 0x27, 0x59, 0x39, 0xd5, 0x4d, 
  0x41, 0x74, 0xd0, 0x08, 0x0c, 0xf9, 0x13, 0x1f, 0x1a, 0x1b, 0xda, 0x44, 
  0xd7, 0xdf, 0x48, 0x0d, 0x68, 0x2e, 0xef, 0xf4, 0x22, 0x0c, 0x0b, 0x05, 
  0xd3, 0x01, 0xf4, 0xef, 0x38, 0xf9, 0x3d, 0x47, 0x19, 0x7d, 0x14, 0x46, 
  0x3e, 0x1a, 0x71, 0x23, 0xe3, 0x0b, 0x1e, 0xd9, 0xf3, 0xbe, 0x17, 0x2b, 
  0x7e, 0x72, 0xde, 0x19, 0xfd, 0x71, 0x61, 0xdd, 0x1b, 0x75, 0x3a, 0x09, 
  0xde, 0x31, 0x41, 0x7a, 0x2a, 0x66, 0x0d, 0x30, 0xd7, 0x0b, 0x52, 0xfd, 
  0x1a, 0x19, 0xda, 0xdd, 0x1d, 0xe7, 0xe6, 0x51, 0x7f, 0x07, 0x1d, 0xf6, 
  0x2a, 0x1e, 0x07, 0xf2, 0x00, 0x38, 0x41, 0x21, 0x45, 0xc3, 0x14, 0x32, 
  0x23, 0x2d, 0x3f, 0x02, 0x32, 0x2c, 0x39, 0x16, 0x27, 0x48, 0xf6, 0xd6, 
  0x4d, 0x12, 0xcf, 0x77, 0x5e, 0x6e, 0x24, 0x17, 0xe3, 0x11, 0x75, 0xcc, 
  0xcb, 0x00, 0xc0, 0xf5, 0xe0, 0xe7, 0x17, 0x0f, 0x49, 0x70, 0xdf, 0x79, 
  0x1f, 0xf6, 0x35, 0x03, 0xdc, 0xf0, 0xe9, 0x21, 0xe1, 0xc4, 0xca, 0x22, 
  0x0c, 0x0c, 0x39, 0x5b, 0xca, 0x77, 0x33, 0xf1, 0xc2, 0x32, 0x11, 0xda, 
  0x18, 0x2b, 0x46, 0x6a, 0x42, 0x6b, 0xe1, 0x3b, 0xc7, 0x0d, 0x36, 0x32, 
  0x0c, 0x6b, 0x0e, 0xfd, 0x4c, 0xfd, 0x20, 0x73, 0x04, 0x07, 0xd8, 0x20, 
  0xb6, 0x30, 0x09, 0x29, 0xfb, 0x32, 0x0e, 0x08, 0x20, 0xfb, 0x21, 0x4b, 
  0x3c, 0xe3, 0xfe, 0x3c, 0xed, 0xbb, 0xeb, 0xca, 0xb1, 0x48, 0xbc, 0xb8, 
  0x02, 0xfe, 0x20, 0x11, 0x26, 0x62, 0xb4, 0x4a, 0x09, 0xc5, 0xea, 0xb5, 
  0xb9, 0x33, 0x32, 0xee, 0x07, 0x1b, 0x38, 0x34, 0x47, 0x3c, 0xdb, 0x05, 
  0x27, 0x58, 0xf2, 0x23, 0x01, 0x1b, 0xfb, 0xc7, 0x04, 0xd7, 0x42, 0xfc, 
  0x36, 0x37, 0x2e, 0xe1, 0x05, 0x5a, 0x00, 0x20, 0xf6, 0x7f, 0x41, 0x19, 
  0x40, 0x39, 0xed, 0x53, 0x16, 0x0c, 0x02, 0x0e, 0x29, 0x79, 0x6e, 0x2e, 
  0xeb, 0x1c, 0xcc, 0x37, 0xe3, 0x0d, 0x3c, 0x0a, 0xdd, 0x24, 0x32, 0xda, 
  0xd1, 0x18, 0xd7, 0xea, 0xc7, 0xe1, 0xd6, 0xe7, 0xde, 0xf6, 0x33, 0x56, 
  0x49, 0xfc, 0xfc, 0x32, 0x42, 0x1a, 0xf2, 0x29, 0xc4, 0x35, 0x42, 0x14, 
  0x38, 0xfe, 0x02, 0x71, 0x24, 0x1b, 0x09, 0xfb, 0xfa, 0x52, 0x17, 0x27, 
  0x34, 0x2b, 0xed, 0xee, 0xdb, 0x27, 0xbb, 0xfa, 0xeb, 0x19, 0x2e, 0x54, 
  0x12, 0xb5, 0xff, 0xff, 0x04, 0x00, 0x00, 0x00, 0x80, 0x00, 0x00, 0x00, 
  0xa9, 0xf6, 0xff, 0xff, 0xc8, 0x1e, 0x00, 0x00, 0x69, 0xf1, 0xff, 0xff, 
  0xd9, 0xf4, 0xff, 0xff, 0x4e, 0xf6, 0xff, 0xff, 0x04, 0xf6, 0xff, 0xff, 
  0x01, 0xf6, 0xff, 0xff, 0x50, 0xf9, 0xff, 0xff, 0x63, 0x1f, 0x00, 0x00, 
  0xda, 0x01, 0x00, 0x00, 0x88, 0xf8, 0xff, 0xff, 0x59, 0x1f, 0x00, 0x00, 
  0xd9, 0x0d, 0x00, 0x00, 0x73, 0xf2, 0xff, 0xff, 0xf3, 0xf2, 0xff, 0xff, 
  0xdb, 0xf3, 0xff, 0xff, 0x7a, 0xfc, 0xff, 0xff, 0xd2, 0xf1, 0xff, 0xff, 
  0x6f, 0xf4, 0xff, 0xff, 0xa6, 0xf8, 0xff, 0xff, 0x58, 0xf9, 0xff, 0xff, 
  0x59, 0xf6, 0xff, 0xff, 0x3d, 0x21, 0x00, 0x00, 0x9d, 0xf4, 0xff, 0xff, 
  0x27, 0xf2, 0xff, 0xff, 0x40, 0x1b, 0x00, 0x00, 0x71, 0xfa, 0xff, 0xff, 
  0xda, 0xf9, 0xff, 0xff, 0xf5, 0xf4, 0xff, 0xff, 0xe3, 0xf9, 0xff, 0xff, 
  0x0c, 0xf6, 0xff, 0xff, 0x68, 0xf2, 0xff, 0xff, 0x9e, 0xb5, 0xff, 0xff, 
  0x04, 0x00, 0x00, 0x00, 0x00, 0x48, 0x00, 0x00, 0x36, 0x02, 0x33, 0x46, 
  0x20, 0x63, 0x65, 0x75, 0xc8, 0x18, 0xda, 0xfc, 0x30, 0x77, 0x1e, 0x5e, 
  0x34, 0x28, 0x63, 0x35, 0x4f, 0x0b, 0xeb, 0x5d, 0x0b, 0x0a, 0x41, 0x43, 
  0x1f, 0x59, 0x37, 0xe8, 0x50, 0xff, 0x64, 0x29, 0x45, 0x3b, 0x4d, 0x42, 
  0x17, 0x2c, 0x15, 0x0a, 0xde, 0x69, 0xe5, 0x29, 0x49, 0x3a, 0x71, 0xf8, 
  0x3e, 0x55, 0xec, 0x5a, 0x5e, 0x13, 0xf3, 0x12, 0x23, 0x16, 0x34, 0x10, 
  0x08, 0xf6, 0x3f, 0x42, 0x12, 0x5a, 0x31, 0x5e, 0xe3, 0x24, 0x1d, 0x22, 
  0xd2, 0x35, 0x0a, 0x1d, 0x34, 0x0f, 0x6c, 0x52, 0x21, 0x15, 0x25, 0x09, 
  0x5d, 0xb2, 0x03, 0x30, 0x4f, 0x4b, 0x33, 0x20, 0x28, 0x00, 0x2e, 0x01, 
  0x1b, 0x58, 0x4c, 0x7f, 0x0e, 0x15, 0x0c, 0x07, 0xef, 0x4e, 0x23, 0x1b, 
  0x4d, 0x30, 0x22, 0x15, 0x11, 0x5c, 0xf7, 0x4e, 0x53, 0xd4, 0x41, 0xf4, 
  0x5d, 0x67, 0x2e, 0x46, 0x6c, 0x1d, 0x0a, 0x1b, 0xf8, 0x43, 0x3d, 0x26, 
  0xe4, 0x1f, 0xed, 0x23, 0xe9, 0x6d, 0x0f, 0x5a, 0x62, 0x1a, 0x55, 0x0f, 
  0x2d, 0x62, 0x31, 0x34, 0x2e, 0xda, 0x2a, 0x1d, 0x01, 0x52, 0x55, 0x26, 
  0x3b, 0xbc, 0x64, 0x57, 0x47, 0x20, 0x72, 0x20, 0xef, 0x34, 0xec, 0xf7, 
  0xc5, 0x5f, 0xfb, 0x5b, 0x5d, 0x2b, 0x28, 0x53, 0xfc, 0x12, 0xeb, 0x32, 
  0x10, 0xae, 0x04, 0x37, 0xfd, 0x7b, 0x38, 0x26, 0x63, 0xe9, 0x39, 0x4b, 
  0x41, 0x1e, 0x73, 0x46, 0xcb, 0xe1, 0x13, 0x0c, 0x23, 0x27, 0x4b, 0x33, 
  0x37, 0x0a, 0x26, 0xfa, 0x0d, 0x58, 0x0f, 0x40, 0x68, 0xd8, 0x05, 0x57, 
  0x30, 0x6a, 0x07, 0x0d, 0x4a, 0xf9, 0x2d, 0x08, 0xf7, 0x68, 0x1a, 0x29, 
  0xf2, 0x20, 0x13, 0xfb, 0x2d, 0x35, 0x3a, 0x2b, 0x32, 0x3b, 0x34, 0xf1, 
  0x17, 0x49, 0x3a, 0x48, 0x5b, 0xbd, 0x57, 0x06, 0x3b, 0x48, 0x57, 0x26, 
  0x16, 0x1f, 0x29, 0x13, 0x1a, 0x7c, 0x13, 0x3c, 0xf2, 0xf8, 0xe8, 0xf8, 
  0x22, 0x64, 0x04, 0x13, 0x23, 0x0d, 0x3d, 0x1f, 0x48, 0xfa, 0xf8, 0x28, 
  0x32, 0xbc, 0x5a, 0x51, 0x16, 0x52, 0x4c, 0x4f, 0x30, 0x01, 0x57, 0x6c, 
  0x20, 0x38, 0x64, 0x2e, 0xe3, 0xe9, 0xfb, 0x37, 0x05, 0x53, 0xed, 0x2f, 
  0x24, 0xe3, 0x3e, 0x2b, 0x2b, 0x19, 0x15, 0x15, 0x23, 0xcf, 0x25, 0x1a, 
  0x3e, 0x7e, 0x1b, 0x25, 0x24, 0xc2, 0x29, 0x00, 0xf3, 0x77, 0x4b, 0x3f, 
  0xea, 0xf3, 0x07, 0x15, 0xe2, 0x3d, 0x41, 0x21, 0x5c, 0xef, 0x33, 0xf9, 
  0x2a, 0x4e, 0xdd, 0x45, 0x39, 0xe7, 0xf6, 0x49, 0x59, 0x15, 0x6f, 0x12, 
  0x2d, 0xc5, 0x44, 0x38, 0xe0, 0x73, 0x4c, 0x4e, 0x02, 0x23, 0x29, 0xca, 
  0xd9, 0x18, 0xec, 0x3a, 0x77, 0x32, 0x57, 0x4f, 0x46, 0x34, 0x37, 0x41, 
  0x32, 0xa0, 0xf2, 0x34, 0x4f, 0x2b, 0x62, 0x63, 0x43, 0x2f, 0x45, 0x75, 
  0x22, 0x7f, 0x5b, 0x61, 0x15, 0xda, 0x24, 0x09, 0x36, 0x65, 0xfc, 0x55, 
  0x27, 0xe1, 0x38, 0xf0, 0x53, 0x34, 0xd7, 0x2e, 0x7a, 0xc0, 0x4a, 0xf5, 
  0x1e, 0x0e, 0x18, 0x1b, 0x4e, 0xe0, 0x13, 0x40, 0xfe, 0x30, 0x42, 0x42, 
  0x19, 0x17, 0xd9, 0xcb, 0x2a, 0x62, 0xfd, 0x67, 0x66, 0x05, 0x60, 0x29, 
  0x25, 0x36, 0x1c, 0x50, 0x2a, 0xc9, 0xfd, 0x2c, 0x5d, 0x4e, 0x47, 0xf9, 
  0x57, 0x0f, 0x55, 0x68, 0xe1, 0x53, 0x4b, 0x5b, 0xfd, 0x20, 0xe2, 0xc6, 
  0x2d, 0x65, 0x03, 0x73, 0x22, 0x0f, 0x6f, 0x43, 0x00, 0x68, 0x39, 0x22, 
  0x51, 0xb5, 0x2b, 0x0a, 0x24, 0x2d, 0x40, 0x2b, 0x1a, 0x2b, 0x1a, 0x65, 
  0x38, 0x2b, 0x0a, 0x1f, 0x35, 0x30, 0xdb, 0x07, 0x26, 0x49, 0x01, 0x22, 
  0x49, 0x27, 0x18, 0x25, 0x3e, 0x64, 0x13, 0x55, 0x76, 0xd7, 0x61, 0x5a, 
  0x31, 0x2c, 0x32, 0xf1, 0x3c, 0xf8, 0x62, 0x72, 0x44, 0x33, 0x68, 0x55, 
  0x14, 0x41, 0xf0, 0x3e, 0xf6, 0x24, 0xf0, 0x6e, 0x72, 0x05, 0x46, 0x4b, 
  0x53, 0x13, 0x32, 0x5c, 0x5e, 0x12, 0x00, 0x10, 0x12, 0x27, 0x64, 0x3f, 
  0x64, 0xdc, 0x6e, 0x2d, 0x53, 0x13, 0x67, 0x4b, 0xd8, 0x20, 0xff, 0xcc, 
  0x07, 0x67, 0x1d, 0x68, 0x7d, 0xf0, 0x16, 0xef, 0x0b, 0x3e, 0xce, 0x2a, 
  0x1a, 0x12, 0x30, 0x0b, 0x04, 0x51, 0xff, 0x61, 0x3c, 0x24, 0x26, 0x12, 
  0x50, 0x59, 0x35, 0x24, 0xf6, 0xfe, 0xf4, 0xe7, 0x05, 0x44, 0x1d, 0x50, 
  0x6b, 0x04, 0x63, 0x36, 0x21, 0xf4, 0x32, 0x3a, 0x0e, 0xdd, 0x21, 0x00, 
  0x31, 0x12, 0x59, 0x30, 0x53, 0xec, 0x35, 0x66, 0x08, 0x27, 0x0d, 0x44, 
  0xee, 0x2c, 0x22, 0xd7, 0x0f, 0x70, 0xf5, 0x54, 0x58, 0x01, 0x0b, 0x30, 
  0x50, 0xf2, 0xcd, 0x20, 0x61, 0xd9, 0x3f, 0x37, 0x2e, 0x19, 0x32, 0x59, 
  0x30, 0xf4, 0x6b, 0x0b, 0x2f, 0x3a, 0x24, 0x2b, 0xc2, 0x36, 0x1d, 0xe8, 
  0xec, 0x11, 0x41, 0x40, 0x63, 0x06, 0x1a, 0x05, 0xf7, 0x05, 0x27, 0x05, 
  0x25, 0xc5, 0x16, 0x19, 0x49, 0x28, 0x28, 0x00, 0x54, 0x03, 0x13, 0x5a, 
  0xf2, 0x2d, 0x6a, 0x1f, 0xcc, 0x26, 0xe9, 0x21, 0x07, 0x72, 0xef, 0x63, 
  0x26, 0xef, 0x59, 0xef, 0x10, 0x0a, 0x1a, 0xff, 0x2c, 0xef, 0xfb, 0xfb, 
  0x3f, 0x39, 0x42, 0x15, 0x26, 0x1e, 0x36, 0x05, 0x0a, 0x13, 0x54, 0x70, 
  0xf1, 0x3b, 0x37, 0xdc, 0xfa, 0x71, 0x1a, 0x74, 0x44, 0x1b, 0x5d, 0x13, 
  0x19, 0x59, 0x03, 0x02, 0x71, 0xfc, 0x40, 0x11, 0x27, 0x2a, 0x34, 0x1f, 
  0x68, 0x2a, 0x6f, 0x51, 0x11, 0x31, 0x1e, 0x64, 0x07, 0x1c, 0xff, 0xef, 
  0xc4, 0x7b, 0x3d, 0x41, 0x77, 0x2a, 0x5d, 0x06, 0x54, 0x4d, 0xdf, 0x1d, 
  0x1b, 0xfb, 0x11, 0x57, 0x21, 0x36, 0x54, 0xf9, 0x11, 0xe4, 0x4d, 0x02, 
  0xf5, 0x68, 0x4b, 0x7f, 0x07, 0xe7, 0xdb, 0x30, 0xfe, 0x0f, 0x0b, 0x6b, 
  0x5a, 0x3e, 0x3a, 0xfc, 0x1b, 0xf7, 0x2f, 0x09, 0x5e, 0xc0, 0x47, 0xfb, 
  0xfc, 0x2c, 0x0f, 0x26, 0x04, 0x1c, 0x50, 0x22, 0x04, 0x51, 0x44, 0x23, 
  0x0d, 0x10, 0xd8, 0x19, 0x30, 0x0f, 0x1b, 0x72, 0x3a, 0xfc, 0x52, 0x53, 
  0x3b, 0x29, 0x00, 0x4a, 0x43, 0xfe, 0xfc, 0x03, 0x60, 0x44, 0x55, 0x02, 
  0x4f, 0x06, 0x6f, 0x04, 0x31, 0x22, 0x2b, 0x3e, 0xc3, 0x35, 0xfe, 0xdd, 
  0x17, 0x18, 0x2b, 0x73, 0x67, 0x10, 0x62, 0x11, 0x45, 0x56, 0xf7, 0x63, 
  0x57, 0x0c, 0x1f, 0x4f, 0x3d, 0x22, 0x30, 0xfe, 0xae, 0xde, 0x16, 0xba, 
  0xf0, 0x90, 0xb5, 0xce, 0x0d, 0x00, 0xb8, 0x2e, 0xdd, 0x90, 0xc5, 0xb4, 
  0xde, 0xee, 0x1d, 0xcb, 0xfb, 0xec, 0x15, 0xb2, 0xfa, 0x03, 0xf2, 0xa5, 
  0xd2, 0xfc, 0xa1, 0xde, 0xce, 0x1f, 0xac, 0xbb, 0xfd, 0x2b, 0x05, 0xfb, 
  0x28, 0xd5, 0x29, 0x6d, 0x6e, 0xcd, 0x9f, 0xab, 0xbb, 0xe6, 0xca, 0xe8, 
  0x19, 0x29, 0xdd, 0x9f, 0xa6, 0x59, 0x2c, 0x15, 0x0d, 0xdd, 0x1c, 0xcb, 
  0xc0, 0x26, 0x97, 0xc5, 0xbe, 0xc4, 0x47, 0x02, 0x3b, 0x56, 0xc9, 0x1f, 
  0x1a, 0xcb, 0xa1, 0x95, 0x25, 0x3b, 0xc9, 0xa3, 0xc1, 0xcc, 0xe5, 0xa5, 
  0xc5, 0xfe, 0xec, 0x0e, 0xfc, 0xf6, 0xff, 0xbd, 0xce, 0x1d, 0x0b, 0xdd, 
  0x2c, 0x19, 0xa4, 0xa5, 0x08, 0x44, 0x08, 0x4f, 0x56, 0xe1, 0x01, 0xee, 
  0xa1, 0x1f, 0xf9, 0x28, 0xdf, 0x95, 0x34, 0x02, 0xd9, 0x55, 0xf1, 0x95, 
  0xaa, 0xd9, 0xfa, 0x20, 0xf9, 0x61, 0xf7, 0x2d, 0xc1, 0xfd, 0xd7, 0x06, 
  0x78, 0xec, 0xaf, 0x3c, 0x61, 0xc9, 0xab, 0xe0, 0x19, 0x17, 0xec, 0xc0, 
  0xcc, 0xe4, 0x27, 0x17, 0xe5, 0x14, 0xb9, 0x22, 0xe8, 0x13, 0x19, 0x23, 
  0xb5, 0x73, 0x19, 0x99, 0x26, 0xb0, 0xbb, 0xe8, 0xfe, 0x55, 0xdd, 0xe9, 
  0x22, 0x95, 0xc6, 0x08, 0xab, 0xfe, 0xb4, 0xda, 0x81, 0x23, 0x71, 0x95, 
  0xf2, 0x47, 0xd2, 0xdb, 0x14, 0x9a, 0x0f, 0x24, 0x00, 0x59, 0xc0, 0x0c, 
  0xe3, 0x09, 0x01, 0x28, 0x5e, 0xd6, 0xaf, 0xea, 0xe7, 0x28, 0xd8, 0xa3, 
  0xb7, 0x0e, 0x10, 0xd8, 0xbe, 0x1c, 0x11, 0xe6, 0xfa, 0x29, 0xb9, 0x1b, 
  0x9b, 0xc6, 0x02, 0x05, 0x06, 0xd4, 0xd9, 0xe3, 0xee, 0x9a, 0xbd, 0x99, 
  0x5a, 0x36, 0xcd, 0x14, 0x4d, 0xfc, 0xb2, 0xba, 0xd7, 0xcf, 0x0a, 0x17, 
  0xd7, 0x13, 0x2c, 0xab, 0xae, 0x05, 0x9a, 0xb1, 0xbb, 0xa6, 0xac, 0xea, 
  0xb5, 0x1b, 0x96, 0xd9, 0xbc, 0x86, 0xd6, 0xaa, 0x6d, 0x37, 0x03, 0x17, 
  0xf7, 0x1e, 0x25, 0xc7, 0xa3, 0x14, 0xd2, 0x18, 0x89, 0xa8, 0x4e, 0x8a, 
  0x28, 0x1b, 0xb9, 0x09, 0xc1, 0xc5, 0xc3, 0xd7, 0xd2, 0xca, 0x91, 0x43, 
  0x3e, 0x96, 0x1a, 0x53, 0xec, 0xf4, 0xf5, 0xb1, 0x0d, 0xe6, 0xb1, 0xbe, 
  0x9c, 0x2a, 0x56, 0xa1, 0x03, 0x04, 0xda, 0x0d, 0x39, 0x45, 0xfb, 0xd5, 
  0x3e, 0xae, 0x83, 0xd6, 0xa7, 0x20, 0xd4, 0xfd, 0xc3, 0xb5, 0xbf, 0xcc, 
  0x31, 0xda, 0xe1, 0x59, 0x25, 0xa4, 0x40, 0xad, 0x5b, 0x2b, 0xda, 0xae, 
  0x2a, 0xd1, 0xb8, 0x1b, 0x9a, 0x0f, 0x34, 0x56, 0xaf, 0x33, 0x22, 0x01, 
  0x2f, 0x3f, 0x05, 0x8c, 0xa4, 0x9f, 0xbc, 0xfc, 0xdb, 0xe2, 0x2d, 0x35, 
  0xb0, 0x8c, 0x1b, 0x0c, 0xb4, 0x5d, 0x52, 0xdc, 0xc0, 0x38, 0xa0, 0xc2, 
  0x27, 0xcb, 0x33, 0x52, 0xd6, 0xca, 0xce, 0x61, 0x56, 0xe5, 0x4a, 0x2b, 
  0xb2, 0x14, 0xad, 0xd8, 0xa1, 0x59, 0xbb, 0xea, 0x02, 0x59, 0x49, 0x9c, 
  0x26, 0xe3, 0xf5, 0x1b, 0xe8, 0x85, 0xc9, 0x15, 0x57, 0x0d, 0xc1, 0x28, 
  0xb2, 0xde, 0x30, 0x0c, 0xf9, 0xc3, 0x56, 0xb6, 0xf9, 0xe5, 0xab, 0xe2, 
  0x32, 0x1f, 0xd4, 0xab, 0xfa, 0xff, 0xa2, 0xb6, 0x9c, 0xd9, 0x29, 0xda, 
  0x14, 0x03, 0xed, 0x12, 0xea, 0x22, 0x24, 0x19, 0xa1, 0xfb, 0xf4, 0x2f, 
  0x45, 0xcf, 0x05, 0xab, 0x27, 0xc0, 0xb3, 0xb7, 0x95, 0xaa, 0x13, 0x2e, 
  0xee, 0xd1, 0x1a, 0xe9, 0xde, 0xe9, 0x95, 0x55, 0x33, 0xc4, 0xa7, 0xd5, 
  0x62, 0xa4, 0x3b, 0xdb, 0x29, 0x57, 0xb3, 0xd7, 0x12, 0x99, 0x1b, 0xc6, 
  0x99, 0xbe, 0x12, 0xc1, 0x5c, 0x3a, 0x9a, 0xf9, 0x55, 0x56, 0xec, 0x3e, 
  0x57, 0x33, 0x22, 0xa6, 0x26, 0xea, 0x54, 0xcd, 0xd5, 0x5f, 0xf6, 0x13, 
  0xa3, 0x61, 0x95, 0x45, 0x41, 0xe2, 0x4a, 0x1b, 0x01, 0xa2, 0x08, 0x4c, 
  0x38, 0xe9, 0xac, 0xfc, 0x16, 0xe0, 0x56, 0x0a, 0x81, 0x49, 0x3e, 0xe9, 
  0x0c, 0x35, 0xcc, 0x96, 0xae, 0xfb, 0xea, 0x2d, 0x5c, 0x1a, 0x01, 0xf6, 
  0x49, 0x51, 0x9b, 0xe7, 0xc7, 0x13, 0x09, 0x38, 0x1a, 0xfd, 0x01, 0x9a, 
  0x60, 0x4a, 0xaa, 0x13, 0x28, 0xb5, 0xdc, 0x22, 0x4c, 0x4b, 0x8f, 0x16, 
  0xc7, 0x90, 0xd2, 0x13, 0x11, 0xc4, 0x87, 0xfc, 0x70, 0x1a, 0x65, 0x39, 
  0x37, 0x65, 0x79, 0x2b, 0xd7, 0xe4, 0xf0, 0x1b, 0x2b, 0x60, 0x2b, 0x2e, 
  0x2e, 0x40, 0x51, 0x4e, 0x0c, 0x48, 0xf4, 0x49, 0x1a, 0xeb, 0x0a, 0xfb, 
  0x30, 0x52, 0x38, 0xfc, 0x03, 0xe3, 0x0b, 0x39, 0x29, 0x14, 0x52, 0x38, 
  0x1e, 0xf3, 0xce, 0x0e, 0x2d, 0x75, 0xf0, 0x79, 0x2d, 0x18, 0x22, 0x3c, 
  0x22, 0x20, 0x32, 0x3b, 0x5f, 0xe6, 0x56, 0xee, 0x5a, 0x45, 0x27, 0x44, 
  0x54, 0xd5, 0x0c, 0x5a, 0x0d, 0x55, 0x1f, 0x27, 0xe1, 0x33, 0x08, 0x02, 
  0x25, 0x20, 0x56, 0x48, 0x40, 0x3e, 0x29, 0x16, 0x29, 0x29, 0x1d, 0x5d, 
  0x3c, 0xf1, 0x1a, 0xee, 0x21, 0x5d, 0x29, 0xee, 0x09, 0xf0, 0x4c, 0x10, 
  0xf5, 0x18, 0x29, 0x39, 0x1b, 0x2b, 0xe3, 0x2e, 0x1e, 0x48, 0x4c, 0x63, 
  0x39, 0x0d, 0x68, 0x06, 0x58, 0xfe, 0xed, 0x0e, 0x22, 0xc9, 0x52, 0xf9, 
  0xfc, 0x29, 0x34, 0x46, 0x5d, 0xcd, 0x4b, 0x4e, 0xed, 0x1f, 0x2d, 0x5e, 
  0x0e, 0xee, 0x21, 0xd2, 0xcd, 0x39, 0x46, 0x64, 0x36, 0x38, 0x48, 0x39, 
  0x29, 0x2e, 0x30, 0x34, 0x3b, 0xf3, 0x26, 0x10, 0x44, 0x4d, 0x3e, 0x06, 
  0x37, 0x1d, 0x3a, 0x33, 0x07, 0x37, 0x7a, 0x7f, 0x08, 0x3b, 0xe9, 0xf6, 
  0x2c, 0x32, 0x1e, 0x3c, 0x68, 0xeb, 0x61, 0x4b, 0x18, 0x48, 0x11, 0x0f, 
  0x21, 0xfe, 0x4b, 0x59, 0x48, 0x7a, 0x5c, 0x19, 0x23, 0xcb, 0x37, 0x44, 
  0x11, 0x57, 0x17, 0x16, 0x2f, 0xda, 0x2b, 0xd2, 0xe0, 0x5e, 0x35, 0x31, 
  0x34, 0x26, 0x2e, 0x3a, 0x26, 0xfc, 0xe4, 0x02, 0x19, 0x13, 0x28, 0x02, 
  0x38, 0x59, 0x16, 0x38, 0x0e, 0xd1, 0x6a, 0x66, 0xeb, 0x58, 0x0c, 0x1e, 
  0xdf, 0xdd, 0xe8, 0x0c, 0xd9, 0x43, 0x17, 0x7f, 0x65, 0xe6, 0x16, 0x35, 
  0x54, 0x0a, 0x30, 0x22, 0x3d, 0xbb, 0xf8, 0x45, 0x03, 0x55, 0x33, 0x55, 
  0x4b, 0xe9, 0x0e, 0x49, 0x0f, 0x3b, 0x54, 0x16, 0xbf, 0xfd, 0xe7, 0xe1, 
  0xfc, 0x69, 0x4e, 0x14, 0x72, 0xec, 0x4a, 0x20, 0x2c, 0x02, 0x30, 0x2c, 
  0x12, 0xae, 0x40, 0x0d, 0x44, 0x40, 0x47, 0x37, 0xf3, 0x67, 0xa1, 0xfa, 
  0x1e, 0x08, 0xbb, 0xd4, 0x1a, 0x07, 0x39, 0x18, 0x02, 0xad, 0xd5, 0xe5, 
  0xce, 0xe5, 0xf8, 0x8f, 0xd2, 0xea, 0xe2, 0x8c, 0xfe, 0x48, 0xaf, 0x0b, 
  0x0d, 0x03, 0xe1, 0xb3, 0xd5, 0x6c, 0xf6, 0xe1, 0xdd, 0x0c, 0x15, 0xdc, 
  0xeb, 0x06, 0xcc, 0xf8, 0xee, 0x95, 0xd3, 0x08, 0x8d, 0xf5, 0xb0, 0xeb, 
  0xaf, 0x26, 0xe9, 0xe9, 0xd3, 0x12, 0x85, 0x2a, 0x0b, 0x0b, 0xde, 0x27, 
  0xa6, 0x6d, 0xc2, 0x9c, 0x4a, 0xc0, 0xbe, 0xe2, 0x68, 0xe1, 0xc5, 0x71, 
  0x2f, 0x06, 0xdb, 0x02, 0x01, 0xe9, 0xb7, 0xb4, 0xcb, 0xac, 0x70, 0xf6, 
  0xbd, 0x71, 0xa9, 0x10, 0xc0, 0x9f, 0xa8, 0xe9, 0xcb, 0x52, 0xba, 0xea, 
  0x1b, 0xca, 0xf2, 0xfb, 0x63, 0xd7, 0xf3, 0xec, 0x61, 0xcf, 0x9e, 0xae, 
  0xee, 0xf9, 0x22, 0xf7, 0xd8, 0x03, 0x55, 0xdb, 0xda, 0x68, 0x9d, 0xee, 
  0xfc, 0x16, 0xb3, 0xd3, 0x0f, 0x31, 0xbf, 0xae, 0x3b, 0x99, 0x01, 0xeb, 
  0x30, 0x52, 0xff, 0x65, 0x16, 0x8d, 0x23, 0xa9, 0xeb, 0xd2, 0xee, 0xe7, 
  0xae, 0xe3, 0xf6, 0xa0, 0x26, 0x21, 0xaa, 0xd5, 0x1a, 0xdc, 0xa0, 0xff, 
  0xe0, 0x1f, 0xab, 0x08, 0x41, 0x9b, 0xaa, 0xd1, 0x76, 0x16, 0x11, 0x6c, 
  0x66, 0xa1, 0xd9, 0xb1, 0xaa, 0x36, 0xd2, 0xdd, 0xb5, 0xaf, 0x31, 0x17, 
  0xe7, 0x19, 0x93, 0xbe, 0xdd, 0xd4, 0x06, 0xf7, 0xb9, 0x3b, 0xdd, 0x20, 
  0x1e, 0xfe, 0xa9, 0xd7, 0x54, 0xf9, 0xde, 0x46, 0xe3, 0x06, 0x94, 0xc6, 
  0xc0, 0x4a, 0xba, 0x01, 0x20, 0xf2, 0xe8, 0xe5, 0xe7, 0x0f, 0x8c, 0xb7, 
  0xe8, 0xc1, 0xa4, 0x28, 0xb4, 0xe0, 0x8d, 0xc8, 0x09, 0x9c, 0xde, 0xf3, 
  0x07, 0x40, 0x45, 0xdb, 0x49, 0xce, 0xc2, 0x19, 0xc2, 0x04, 0xc6, 0xb9, 
  0x1d, 0xf5, 0x1f, 0x10, 0xa4, 0x6b, 0xa2, 0xd6, 0xfd, 0xb5, 0xd2, 0x0c, 
  0x02, 0x29, 0x0a, 0x01, 0x22, 0xa4, 0xbb, 0xec, 0x0a, 0xfe, 0x20, 0x69, 
  0x17, 0xaa, 0x00, 0xe5, 0x81, 0xec, 0xf0, 0xa3, 0xc2, 0xa1, 0x30, 0xea, 
  0x1e, 0x7a, 0x85, 0xae, 0xee, 0xec, 0x0c, 0xc0, 0x5d, 0xc3, 0x56, 0x26, 
  0x0d, 0x7d, 0x55, 0x5f, 0x0c, 0x12, 0xe1, 0x28, 0x1f, 0x6c, 0x34, 0x56, 
  0x1d, 0xec, 0x47, 0x30, 0x25, 0x43, 0x26, 0x64, 0x23, 0xe3, 0xfb, 0x0e, 
  0x51, 0x70, 0x0e, 0x4e, 0x31, 0xcf, 0x2b, 0x14, 0x02, 0x71, 0x19, 0x27, 
  0xec, 0xe6, 0xcf, 0x1f, 0xd0, 0x41, 0x4d, 0x47, 0x1b, 0x19, 0x29, 0x59, 
  0x0c, 0x59, 0xf3, 0x5e, 0x27, 0x0e, 0xfe, 0x13, 0x54, 0x56, 0x19, 0x45, 
  0x1b, 0xfc, 0x71, 0x0a, 0x03, 0x22, 0x52, 0x5e, 0xe0, 0x30, 0xdb, 0x0e, 
  0x18, 0x17, 0x3c, 0x2d, 0x69, 0x02, 0x78, 0x12, 0x19, 0x2a, 0x2a, 0x4e, 
  0x42, 0xf0, 0x50, 0x29, 0x05, 0x3d, 0x50, 0x2f, 0x51, 0x09, 0x48, 0x1c, 
  0x13, 0x1c, 0x6a, 0x6a, 0x25, 0xe7, 0xf9, 0x2e, 0xfc, 0x60, 0x21, 0x25, 
  0x46, 0x14, 0x6c, 0x21, 0x1e, 0x62, 0xec, 0x65, 0x70, 0xd7, 0x35, 0x4c, 
  0x0a, 0x2e, 0x14, 0x4f, 0x2d, 0xce, 0x47, 0x1b, 0xe6, 0x69, 0x34, 0x7f, 
  0xc0, 0x2d, 0xdf, 0x17, 0xe4, 0x21, 0xf6, 0x4f, 0x4d, 0xe3, 0x5d, 0x37, 
  0x0b, 0x25, 0xfb, 0x62, 0x18, 0x04, 0x32, 0x25, 0x64, 0x72, 0x33, 0x4a, 
  0x50, 0xc6, 0x4c, 0x13, 0xff, 0x48, 0x24, 0x2b, 0xe3, 0x06, 0x0f, 0x00, 
  0x1f, 0x24, 0x3a, 0x58, 0x58, 0x1c, 0x59, 0x06, 0x1b, 0x23, 0xfd, 0x5c, 
  0x6d, 0xab, 0x54, 0x03, 0x3b, 0x42, 0x2a, 0x58, 0x36, 0x12, 0x40, 0x0e, 
  0x41, 0x59, 0x68, 0x53, 0x06, 0x28, 0xd4, 0x26, 0x04, 0x21, 0x0f, 0x2e, 
  0x5d, 0x35, 0x11, 0x36, 0x44, 0x3d, 0xd9, 0x13, 0x64, 0x10, 0xf8, 0x49, 
  0x14, 0x43, 0x27, 0x00, 0x3d, 0xcb, 0x27, 0x69, 0x32, 0x41, 0x5c, 0x51, 
  0x10, 0x1a, 0x07, 0x06, 0x1c, 0x73, 0x11, 0x6a, 0x56, 0xdd, 0x6f, 0x16, 
  0x52, 0x57, 0xca, 0x64, 0x0c, 0x06, 0x06, 0x18, 0xff, 0x1a, 0x05, 0x55, 
  0x71, 0x15, 0x29, 0x67, 0x41, 0x1b, 0x3f, 0x33, 0x1f, 0x09, 0x1b, 0xde, 
  0x26, 0x6c, 0x21, 0x5e, 0x45, 0x09, 0x22, 0x44, 0x47, 0x3e, 0x01, 0x63, 
  0x5c, 0xdc, 0xfa, 0x36, 0x3d, 0x5f, 0x24, 0x5c, 0x41, 0x1d, 0x31, 0x0b, 
  0xe8, 0x42, 0x69, 0x2d, 0xf3, 0x09, 0xf8, 0x38, 0x1a, 0x73, 0x3c, 0x43, 
  0x7b, 0x3a, 0x1b, 0x46, 0x37, 0x4a, 0xfc, 0x11, 0x4a, 0x17, 0xf7, 0x10, 
  0x44, 0x55, 0x65, 0x52, 0x22, 0xe3, 0x55, 0x0a, 0x40, 0x5e, 0x50, 0x37, 
  0xeb, 0x17, 0xed, 0xdb, 0xdd, 0x74, 0x0a, 0x29, 0x35, 0x34, 0x6e, 0xff, 
  0x37, 0x56, 0x14, 0x05, 0x33, 0x09, 0x04, 0x13, 0x59, 0x55, 0x67, 0x57, 
  0x41, 0x07, 0x0e, 0x13, 0x28, 0x58, 0x1c, 0x55, 0xf4, 0x33, 0xfb, 0xc6, 
  0xe8, 0x41, 0x10, 0x48, 0x3a, 0x3c, 0x3a, 0x3a, 0x02, 0x48, 0xf8, 0x13, 
  0x60, 0x02, 0x3f, 0x24, 0x02, 0x78, 0x42, 0x22, 0x17, 0x2c, 0x41, 0x0a, 
  0x30, 0x39, 0x3f, 0x21, 0xdd, 0xf8, 0xe8, 0xd4, 0xf0, 0x60, 0x56, 0x15, 
  0x12, 0xff, 0x53, 0x51, 0x3b, 0x13, 0x15, 0x58, 0x0c, 0x04, 0x31, 0x5a, 
  0x44, 0x33, 0x6a, 0x2a, 0x6a, 0xd2, 0x10, 0x27, 0x48, 0x56, 0x69, 0x48, 
  0xe8, 0x07, 0xda, 0x28, 0xf2, 0x63, 0x2f, 0x7f, 0x2a, 0x11, 0x1d, 0x54, 
  0x3a, 0x62, 0x1d, 0x6c, 0x3f, 0xfe, 0x1e, 0x05, 0x37, 0x53, 0x41, 0x44, 
  0x5e, 0x1d, 0x4b, 0x6e, 0x08, 0x70, 0x3d, 0x1c, 0xc8, 0x24, 0x25, 0x15, 
  0x2b, 0x18, 0x2b, 0x4a, 0x73, 0x29, 0x6d, 0x32, 0x57, 0x1c, 0x08, 0x15, 
  0x27, 0xaa, 0x4b, 0x0e, 0x2c, 0x11, 0x39, 0x04, 0x5d, 0xe5, 0x63, 0x19, 
  0xed, 0x4f, 0x64, 0x52, 0xf8, 0x32, 0xdd, 0x3b, 0xee, 0x50, 0x16, 0x1b, 
  0x78, 0x28, 0x11, 0x0e, 0x3d, 0x3e, 0x08, 0x0f, 0x10, 0xda, 0x3e, 0x22, 
  0x1a, 0x37, 0x29, 0x2f, 0x53, 0xdf, 0x5e, 0x3f, 0x1a, 0x15, 0x59, 0x67, 
  0xec, 0x30, 0x34, 0xff, 0xfc, 0x38, 0xf1, 0x39, 0x25, 0xec, 0x22, 0xf9, 
  0x4d, 0x20, 0xf0, 0x66, 0x48, 0xf7, 0x3d, 0x1d, 0x0e, 0x50, 0x67, 0xfd, 
  0x5c, 0x11, 0x48, 0x67, 0x17, 0x1c, 0x6e, 0x4f, 0xd7, 0x1d, 0x0f, 0xe3, 
  0xfc, 0x77, 0x0e, 0x49, 0x56, 0x01, 0x2c, 0x10, 0x2c, 0x4e, 0xe8, 0x0f, 
  0x6b, 0x02, 0x36, 0x1c, 0x4b, 0x63, 0x52, 0xf9, 0xf8, 0xfd, 0xea, 0xb2, 
  0x27, 0xde, 0x13, 0x90, 0x15, 0x1d, 0x00, 0xe1, 0x29, 0xba, 0x1b, 0xe0, 
  0xdc, 0xfa, 0xc4, 0x05, 0xce, 0x0c, 0x43, 0x11, 0xda, 0x0e, 0xc2, 0xd2, 
  0x04, 0xd0, 0xf1, 0x13, 0xd4, 0xfa, 0x0f, 0xd8, 0xe8, 0xcc, 0xbc, 0x81, 
  0x2f, 0x33, 0x1c, 0x22, 0x59, 0xe0, 0xd7, 0xa7, 0xc3, 0x27, 0xb1, 0x03, 
  0xe8, 0xbf, 0x0b, 0x12, 0xcf, 0x1e, 0xaf, 0xe1, 0xfd, 0x06, 0xf3, 0x0b, 
  0xb2, 0x5d, 0xa3, 0xf3, 0x2a, 0xd9, 0xc0, 0xa3, 0x30, 0x24, 0x29, 0x4c, 
  0x35, 0xd6, 0xe2, 0x82, 0xb5, 0xfe, 0x03, 0xca, 0xd7, 0x19, 0x0e, 0xf1, 
  0xaf, 0x14, 0x0b, 0xbd, 0xe3, 0x92, 0x00, 0x16, 0xe9, 0x1f, 0xf9, 0xcd, 
  0xe6, 0xac, 0x0c, 0xc4, 0xf1, 0xff, 0xf3, 0x58, 0x3d, 0x9f, 0x14, 0xf6, 
  0xc0, 0xe2, 0xec, 0x1d, 0x06, 0x00, 0x23, 0xf6, 0xed, 0x2b, 0xf7, 0xed, 
  0xce, 0xf6, 0xc7, 0x2c, 0xe3, 0x0b, 0xbb, 0xde, 0xdf, 0xe3, 0xbb, 0xfd, 
  0xe3, 0x37, 0xd0, 0x13, 0x57, 0xac, 0x13, 0xa7, 0xf6, 0xde, 0xf0, 0xdc, 
  0xf4, 0xeb, 0x06, 0xc4, 0x16, 0x0a, 0xfd, 0x0b, 0xf7, 0xe0, 0x11, 0x30, 
  0x0f, 0x49, 0xe7, 0xbd, 0x19, 0x01, 0xe7, 0xe6, 0x46, 0x4d, 0x0b, 0xfd, 
  0x13, 0xa4, 0xfc, 0x8f, 0x9d, 0x4a, 0x02, 0xda, 0xbf, 0x15, 0x3d, 0x04, 
  0xd3, 0x21, 0xc0, 0x26, 0xd9, 0xfe, 0xfd, 0xc7, 0x0f, 0xee, 0xf7, 0xed, 
  0x29, 0x01, 0xa0, 0xdf, 0x35, 0x09, 0x36, 0x1c, 0x2e, 0xee, 0xf8, 0x9c, 
  0x99, 0x2c, 0xa1, 0xee, 0x07, 0x05, 0x11, 0xed, 0xa8, 0x31, 0xfe, 0x21, 
  0xb3, 0xe7, 0xd3, 0xf4, 0x14, 0x1e, 0xea, 0xc0, 0x10, 0x97, 0xd0, 0xaf, 
  0x20, 0xfe, 0x3a, 0x3f, 0x1d, 0xf8, 0x0d, 0xe6, 0xe0, 0xde, 0xea, 0xdb, 
  0xae, 0x20, 0x3b, 0xd1, 0x03, 0x57, 0x0e, 0xc4, 0xff, 0x03, 0xfa, 0xe0, 
  0xc2, 0xfe, 0xa3, 0xc2, 0x32, 0xde, 0xe1, 0x93, 0x38, 0xd3, 0xe6, 0xe8, 
  0x20, 0x09, 0xf8, 0xd0, 0xf5, 0x1d, 0xe1, 0x02, 0xbe, 0xe7, 0x26, 0xc1, 
  0xe7, 0x3f, 0xaf, 0xdc, 0x1b, 0xe2, 0xac, 0xde, 0x59, 0xf6, 0x51, 0x6e, 
  0x32, 0x0f, 0x1e, 0x7f, 0x1f, 0xfb, 0xeb, 0x0f, 0x3c, 0x73, 0xfc, 0x7c, 
  0x53, 0x17, 0x47, 0x33, 0x04, 0x2e, 0xfa, 0x44, 0x25, 0xe3, 0x57, 0x55, 
  0x1a, 0x53, 0x46, 0x43, 0x4b, 0xd7, 0x46, 0x64, 0x3f, 0x36, 0x1d, 0x37, 
  0x2e, 0x3f, 0xd7, 0xfd, 0xc9, 0x20, 0x17, 0x3b, 0x53, 0x06, 0x27, 0x1e, 
  0x3b, 0x25, 0xda, 0x16, 0x72, 0xe7, 0x5b, 0x37, 0x35, 0x52, 0x59, 0x27, 
  0x2d, 0x08, 0x2b, 0x3e, 0x4c, 0x2d, 0x77, 0x5b, 0xc8, 0xf9, 0x00, 0xfe, 
  0xfb, 0x3f, 0x29, 0x7a, 0x25, 0x2d, 0x2e, 0xfa, 0xfa, 0x41, 0x0f, 0x44, 
  0x41, 0x14, 0x07, 0x07, 0x2a, 0x21, 0x67, 0x36, 0x48, 0xe9, 0x53, 0x0e, 
  0x31, 0x13, 0x4e, 0x5d, 0xed, 0x33, 0xf9, 0xdb, 0xeb, 0x61, 0x08, 0x64, 
  0x62, 0x1b, 0x55, 0x3c, 0x06, 0x0b, 0x0b, 0x59, 0x62, 0xc9, 0x60, 0x2b, 
  0x23, 0x12, 0x18, 0x39, 0x4e, 0xe4, 0x17, 0x05, 0x29, 0x2a, 0x44, 0x67, 
  0xe1, 0x38, 0xef, 0xf2, 0xd8, 0x1b, 0x21, 0x1a, 0x21, 0x3b, 0x29, 0x05, 
  0x61, 0x0a, 0xff, 0x34, 0x18, 0x17, 0x13, 0x22, 0x53, 0x77, 0x67, 0x23, 
  0x5d, 0xfa, 0x37, 0x30, 0xe8, 0x3c, 0x0f, 0x1a, 0xf1, 0xe3, 0xfb, 0x28, 
  0xf3, 0x29, 0x1e, 0x22, 0x38, 0xf0, 0x6c, 0x0d, 0x20, 0x08, 0xf4, 0x12, 
  0x62, 0x05, 0x58, 0x0d, 0x40, 0x3e, 0x60, 0x4d, 0x0c, 0xe9, 0x71, 0x33, 
  0x28, 0x26, 0x65, 0x1d, 0xd1, 0x0a, 0x1a, 0x0b, 0x0c, 0x37, 0x41, 0x5e, 
  0x26, 0x36, 0x6f, 0x4e, 0x4d, 0x30, 0x04, 0x29, 0x5b, 0x16, 0x08, 0x5f, 
  0x65, 0x2f, 0x3f, 0x03, 0x17, 0xed, 0x11, 0x1a, 0x1c, 0x57, 0x34, 0x2f, 
  0xf3, 0xdb, 0x2d, 0x38, 0x23, 0x71, 0x35, 0x6c, 0x5c, 0x19, 0x6a, 0x4f, 
  0x55, 0x0c, 0xe1, 0x29, 0x47, 0xbc, 0x2f, 0x04, 0x09, 0x35, 0x3a, 0xf9, 
  0x46, 0x1f, 0x3a, 0x41, 0x4e, 0x58, 0x4b, 0x74, 0x28, 0x30, 0xfa, 0xfe, 
  0xce, 0x16, 0x47, 0x22, 0x2a, 0x26, 0x2e, 0x1b, 0x49, 0x61, 0x04, 0x43, 
  0x14, 0x06, 0x21, 0x31, 0x5d, 0x5c, 0x47, 0x5a, 0xe1, 0xa3, 0xea, 0xbc, 
  0xda, 0x1a, 0xc5, 0x18, 0xce, 0x3d, 0x1d, 0xf1, 0xbb, 0xdb, 0x41, 0xa2, 
  0xea, 0x1b, 0xe6, 0x15, 0xc6, 0xc2, 0xa3, 0x43, 0x32, 0x32, 0xf2, 0xe7, 
  0x0d, 0x9d, 0xc2, 0x41, 0x26, 0xb2, 0xde, 0x46, 0xd7, 0x38, 0xda, 0x58, 
  0x2a, 0xed, 0x33, 0xa9, 0x4a, 0x42, 0xd1, 0x05, 0xfd, 0x18, 0x6f, 0x34, 
  0x42, 0x46, 0xfa, 0xb9, 0xb0, 0x56, 0x1f, 0x1e, 0xd4, 0x11, 0xe9, 0x30, 
  0x31, 0xd6, 0x2c, 0xbd, 0xcf, 0xcb, 0xfc, 0xba, 0x34, 0x28, 0xd1, 0xbc, 
  0xc7, 0x13, 0x33, 0x96, 0x3a, 0xb8, 0x61, 0x17, 0x32, 0xdd, 0xca, 0xcd, 
  0x4b, 0x03, 0x31, 0x0b, 0xc4, 0x2e, 0x03, 0xdc, 0xa9, 0xf0, 0x33, 0xc0, 
  0xdd, 0x19, 0xc1, 0x23, 0xdb, 0xf8, 0x25, 0x17, 0xcc, 0x2e, 0xad, 0xb4, 
  0xe3, 0x2d, 0x0b, 0xb1, 0x0d, 0xfc, 0xde, 0xc5, 0x07, 0x3a, 0xad, 0xc4, 
  0xe9, 0xc6, 0x29, 0xd2, 0xde, 0xc7, 0x21, 0xad, 0x2a, 0x44, 0xc8, 0xee, 
  0x19, 0xc9, 0xe6, 0xad, 0x11, 0xe5, 0xfa, 0x2e, 0x9b, 0xb5, 0x5e, 0x40, 
  0x13, 0x34, 0x2b, 0x03, 0xad, 0x41, 0x3f, 0x10, 0xfc, 0x2a, 0xa2, 0x46, 
  0x36, 0xf9, 0xad, 0xf0, 0x47, 0x41, 0x08, 0xe5, 0x32, 0x4d, 0x1e, 0x12, 
  0x13, 0xb9, 0x31, 0xa2, 0xd2, 0xd2, 0xd9, 0xd0, 0xac, 0xbd, 0x4e, 0x2c, 
  0xd2, 0x7f, 0x3e, 0xff, 0xe5, 0x17, 0xbc, 0x1d, 0x3d, 0x35, 0x1b, 0xcd, 
  0xbd, 0x0f, 0xf5, 0xac, 0xbe, 0x3a, 0xf4, 0x32, 0xd1, 0x24, 0x34, 0xc4, 
  0x95, 0x25, 0x04, 0x1e, 0xd9, 0xb8, 0x22, 0x19, 0xf8, 0x35, 0xe0, 0x37, 
  0x2d, 0xcd, 0x18, 0x47, 0xf2, 0xda, 0x34, 0x11, 0x1c, 0x2b, 0xbb, 0x2e, 
  0x3d, 0xc2, 0xd9, 0xe7, 0x21, 0xe0, 0xb3, 0x0e, 0x0e, 0xcf, 0x1d, 0x3a, 
  0xd8, 0xd4, 0xef, 0xf2, 0xb6, 0x41, 0xe7, 0x49, 0xf4, 0x30, 0x06, 0x32, 
  0x26, 0xd1, 0xc1, 0x34, 0x43, 0xe3, 0xc5, 0xf6, 0x08, 0xf8, 0xd1, 0x00, 
  0x1a, 0x37, 0xbc, 0xc2, 0x1b, 0xf5, 0x9e, 0x3c, 0x11, 0x08, 0xd9, 0xd0, 
  0xc8, 0x79, 0x0b, 0x42, 0xe0, 0xd2, 0x39, 0xee, 0x51, 0xee, 0x47, 0x30, 
  0x4a, 0x66, 0x71, 0x7e, 0xde, 0xda, 0x26, 0xf6, 0xf0, 0x34, 0x4d, 0x5b, 
  0x32, 0x0e, 0x0f, 0x4c, 0x40, 0x03, 0xdc, 0x1c, 0x49, 0xd7, 0x26, 0x11, 
  0x3b, 0x14, 0x38, 0x44, 0x2d, 0x07, 0x39, 0x36, 0x33, 0x5b, 0x4e, 0x50, 
  0xf5, 0xda, 0xe6, 0x04, 0x1a, 0x77, 0x49, 0x60, 0x5f, 0x2e, 0x23, 0x24, 
  0x5b, 0x36, 0x08, 0x3e, 0x19, 0xe7, 0x23, 0x49, 0x2b, 0x27, 0x3e, 0x38, 
  0x25, 0xfe, 0x27, 0x60, 0x3e, 0x2f, 0x30, 0x6c, 0x09, 0xe5, 0xdd, 0x02, 
  0xef, 0x56, 0x5a, 0x1d, 0x7f, 0x3d, 0x40, 0xfc, 0xf2, 0x35, 0xf0, 0x63, 
  0x1a, 0x11, 0x58, 0x4d, 0x40, 0x48, 0x12, 0x3a, 0x2a, 0xf8, 0x47, 0x6e, 
  0x42, 0x1a, 0x1f, 0x74, 0xfa, 0xfb, 0x0e, 0xeb, 0x0a, 0x67, 0x0b, 0x31, 
  0x15, 0x35, 0x41, 0xf6, 0x52, 0x25, 0x3d, 0x0d, 0x43, 0xf1, 0x08, 0x33, 
  0x01, 0x51, 0x49, 0x29, 0x08, 0xea, 0x3c, 0x2b, 0x3a, 0x63, 0x59, 0x3f, 
  0xc8, 0x3e, 0x2a, 0x2e, 0x0a, 0x63, 0x15, 0x53, 0x44, 0x2c, 0x22, 0x09, 
  0x28, 0x45, 0x1a, 0x5f, 0x4d, 0x12, 0x32, 0x09, 0xfe, 0x51, 0x54, 0x61, 
  0x1c, 0x29, 0x2d, 0x56, 0x4c, 0x17, 0x1a, 0x61, 0x2c, 0xdc, 0x29, 0xeb, 
  0xed, 0x2e, 0x45, 0x3f, 0x67, 0x38, 0x3b, 0x15, 0x58, 0x48, 0xdc, 0x4c, 
  0x14, 0x19, 0x07, 0x17, 0x3d, 0x5d, 0x25, 0xfe, 0x6e, 0x28, 0x1c, 0x54, 
  0xed, 0x36, 0x18, 0x56, 0x34, 0xe7, 0x0d, 0xfa, 0x1f, 0x1e, 0x00, 0x68, 
  0x3c, 0x3c, 0x0b, 0xf8, 0x36, 0x43, 0x0c, 0x17, 0x75, 0xdf, 0x55, 0x5d, 
  0x50, 0x39, 0x59, 0x55, 0x2f, 0xcb, 0x19, 0x27, 0x2e, 0x25, 0x2f, 0x7b, 
  0xe3, 0x3a, 0x03, 0xd8, 0xef, 0x4e, 0x0f, 0x70, 0x6e, 0x23, 0x54, 0x09, 
  0x4a, 0x61, 0x36, 0x4d, 0x24, 0xeb, 0x30, 0x58, 0x2a, 0x6d, 0x0e, 0x64, 
  0x6a, 0xc9, 0x5b, 0x6a, 0x46, 0x65, 0x6b, 0x6b, 0x08, 0x1d, 0xd4, 0xcb, 
  0x26, 0x78, 0x1c, 0x7b, 0x43, 0xde, 0x16, 0x27, 0x14, 0x62, 0xe4, 0x26, 
  0x54, 0xd4, 0x0d, 0x32, 0x06, 0x23, 0x51, 0x4f, 0xa6, 0x3e, 0x14, 0x3b, 
  0xf9, 0x1f, 0xf8, 0x1e, 0x9d, 0x3e, 0xa5, 0xf8, 0xf9, 0x0e, 0xc5, 0xe5, 
  0x24, 0xbf, 0xd6, 0xf6, 0x67, 0xe5, 0x9b, 0xc2, 0x89, 0x0c, 0x9f, 0x81, 
  0x54, 0xda, 0xe5, 0x2a, 0x23, 0xc7, 0x48, 0x50, 0xe9, 0xc3, 0xf5, 0x57, 
  0xe3, 0x8f, 0x61, 0xac, 0x90, 0x56, 0x4c, 0x1c, 0xc3, 0xa4, 0x02, 0x3d, 
  0x8f, 0xf7, 0x3b, 0x2d, 0x40, 0x93, 0x1b, 0xc3, 0x4e, 0xa5, 0xc2, 0xeb, 
  0xe2, 0xd6, 0x19, 0x84, 0xf5, 0xab, 0x06, 0x52, 0xb5, 0x92, 0x10, 0xeb, 
  0xe6, 0x16, 0x0e, 0x8c, 0xa3, 0x97, 0xc2, 0x20, 0x0c, 0xf8, 0x31, 0x57, 
  0xbf, 0xe6, 0xeb, 0xf7, 0xd5, 0x8e, 0x8e, 0xdd, 0x5e, 0x94, 0xd8, 0xb2, 
  0x07, 0x9d, 0x10, 0xef, 0xe1, 0xcd, 0x24, 0xbb, 0xc3, 0xc4, 0x17, 0xd7, 
  0x22, 0x22, 0xf8, 0xa1, 0x43, 0xff, 0x9f, 0x63, 0x5d, 0xbb, 0xe0, 0x57, 
  0x0b, 0xcf, 0x8f, 0x5f, 0x5c, 0x50, 0xda, 0x65, 0x5d, 0xd5, 0x08, 0xd0, 
  0xba, 0x42, 0x8e, 0xce, 0x1f, 0x61, 0xff, 0x37, 0x65, 0xe0, 0xa1, 0x22, 
  0xc0, 0x8f, 0xf5, 0xc5, 0xe8, 0xb2, 0x42, 0xc8, 0x58, 0x9a, 0x08, 0x1f, 
  0x2c, 0x53, 0xb1, 0xd4, 0xe1, 0xa7, 0xd0, 0x69, 0x22, 0x01, 0xb8, 0x08, 
  0x61, 0x49, 0x12, 0x66, 0x35, 0x2c, 0x9b, 0xf0, 0x3d, 0xe3, 0x5d, 0x04, 
  0xaa, 0xf5, 0x57, 0x3d, 0x81, 0xf3, 0x57, 0xd5, 0x52, 0xa5, 0xab, 0xf5, 
  0xcb, 0x20, 0x8e, 0xe3, 0x55, 0x86, 0x6b, 0x48, 0xdb, 0x91, 0x82, 0xfd, 
  0x10, 0xe5, 0x8d, 0x8a, 0xea, 0x12, 0xe2, 0x3a, 0x05, 0xb5, 0x98, 0x3d, 
  0xd8, 0x03, 0x14, 0x53, 0x17, 0x45, 0xe5, 0x3b, 0xf8, 0xf8, 0xe5, 0x95, 
  0x4b, 0xd6, 0xc1, 0xe0, 0x9a, 0x91, 0x2e, 0xca, 0xbb, 0xc6, 0x4e, 0xdc, 
  0x93, 0xe3, 0x66, 0xe9, 0x12, 0x9f, 0x9e, 0x47, 0x2d, 0x8b, 0x54, 0xf2, 
  0xab, 0x96, 0x5f, 0xac, 0xd7, 0xa5, 0x2c, 0x97, 0xc3, 0x48, 0x06, 0xd4, 
  0xdf, 0x53, 0xe6, 0x21, 0x4d, 0x9f, 0x68, 0xb1, 0xfe, 0xba, 0xa3, 0xb1, 
  0xac, 0x8d, 0x39, 0x9b, 0x5b, 0x3e, 0x3d, 0xaa, 0x31, 0xdc, 0x71, 0x2c, 
  0xf4, 0x50, 0x55, 0x5e, 0xe7, 0xe9, 0xe2, 0xf8, 0x14, 0x34, 0x29, 0x4e, 
  0x16, 0xf5, 0x60, 0x3d, 0x29, 0x30, 0x05, 0x5e, 0x0d, 0xd2, 0x56, 0x1e, 
  0x52, 0x40, 0x2f, 0x58, 0x35, 0xd0, 0x12, 0x32, 0x05, 0x4f, 0x56, 0x7a, 
  0xd7, 0x07, 0xd5, 0xd9, 0xd6, 0x3f, 0x2b, 0x4b, 0x50, 0x2d, 0x12, 0x7f, 
  0x04, 0x5a, 0x27, 0x6c, 0x21, 0x06, 0x21, 0x4f, 0x24, 0x4f, 0x6f, 0x36, 
  0x22, 0x28, 0x23, 0x3a, 0x1a, 0x35, 0x31, 0x76, 0x0f, 0xdc, 0xe7, 0x28, 
  0x09, 0x4c, 0x63, 0x3a, 0x48, 0x2f, 0x59, 0x42, 0x19, 0x36, 0x34, 0x6f, 
  0x0e, 0xcc, 0x3e, 0x46, 0x2f, 0x33, 0x3b, 0x08, 0x6b, 0x0a, 0x3b, 0x63, 
  0x25, 0x68, 0x38, 0x2f, 0xd4, 0xf9, 0xf1, 0x3a, 0x2d, 0x76, 0x2f, 0x2f, 
  0x4d, 0x2f, 0x41, 0x38, 0x21, 0x41, 0xe7, 0x5b, 0x46, 0xff, 0x3d, 0x59, 
  0x28, 0x70, 0x14, 0x54, 0x47, 0x28, 0x5f, 0x08, 0xf1, 0x13, 0x22, 0x39, 
  0xd0, 0x38, 0x1c, 0x15, 0xf8, 0x5e, 0x16, 0x2e, 0x1b, 0xef, 0x67, 0x5e, 
  0x3b, 0x0f, 0xd9, 0x5e, 0x49, 0xd9, 0x14, 0x12, 0x51, 0x20, 0x67, 0x46, 
  0x1f, 0xe7, 0x5f, 0x5c, 0x54, 0x5c, 0x50, 0x25, 0x02, 0xf5, 0x00, 0xe8, 
  0xf9, 0x25, 0x4d, 0x41, 0x65, 0xff, 0x52, 0x33, 0x65, 0x44, 0xfc, 0x28, 
  0x16, 0x0f, 0x23, 0x25, 0x47, 0x55, 0x30, 0x40, 0x6f, 0xe6, 0x62, 0x59, 
  0x22, 0x67, 0x4c, 0x6a, 0xfd, 0xe7, 0x2f, 0x23, 0xee, 0x1d, 0x38, 0x20, 
  0x70, 0x08, 0x20, 0x60, 0x36, 0x5d, 0x2a, 0x25, 0x5d, 0x05, 0x27, 0x38, 
  0x2a, 0x6b, 0x50, 0x26, 0x42, 0x31, 0x55, 0x46, 0x0e, 0x3d, 0x41, 0x5f, 
  0x05, 0x1b, 0xf2, 0xfb, 0x04, 0x3d, 0x39, 0x19, 0x51, 0x24, 0x0f, 0x4e, 
  0x4b, 0x0c, 0x1c, 0x63, 0x4b, 0xdc, 0x1b, 0x17, 0x57, 0x3d, 0x51, 0x38, 
  0x62, 0xfe, 0x35, 0x5c, 0x06, 0x3c, 0x0f, 0x64, 0xf1, 0xf4, 0xe7, 0xd5, 
  0xd1, 0x19, 0x1a, 0x0e, 0x6d, 0x34, 0x21, 0x6f, 0x6c, 0x40, 0xd6, 0x2a, 
  0x6f, 0x0e, 0x53, 0x4b, 0x5a, 0x11, 0x63, 0x60, 0xa5, 0x23, 0x99, 0xd5, 
  0x42, 0x94, 0x46, 0xa8, 0xae, 0xb5, 0x59, 0xee, 0x27, 0xda, 0x43, 0xa2, 
  0xb3, 0xbe, 0xd3, 0x06, 0x4f, 0x52, 0x36, 0x45, 0x54, 0x08, 0x06, 0x33, 
  0xc5, 0xae, 0xfa, 0x20, 0x46, 0xaf, 0xe2, 0x57, 0x34, 0xa8, 0xb0, 0xf0, 
  0xa8, 0xe5, 0xe1, 0x0a, 0xe1, 0xee, 0xe0, 0x2d, 0x16, 0xb3, 0xda, 0xfe, 
  0x96, 0xc8, 0x01, 0xbd, 0xcb, 0xd9, 0xdd, 0xb8, 0xba, 0xde, 0xd2, 0xbd, 
  0xbb, 0x9e, 0x25, 0x51, 0x1e, 0x9b, 0x9f, 0xd8, 0xfa, 0x27, 0x31, 0xf5, 
  0x37, 0x0d, 0x4d, 0xc7, 0xd1, 0xc7, 0x9a, 0x55, 0x4a, 0xd0, 0xdd, 0x33, 
  0xcf, 0x3b, 0xed, 0x2a, 0x28, 0x02, 0x9f, 0xf9, 0xcf, 0x0d, 0xfe, 0xa5, 
  0x19, 0x00, 0xe6, 0x0d, 0x9c, 0xcc, 0x4b, 0xa9, 0x16, 0xb1, 0x21, 0x81, 
  0x9d, 0x21, 0x30, 0xd7, 0x49, 0xdc, 0xe3, 0x2e, 0xc1, 0xc0, 0x06, 0x38, 
  0xfd, 0xe6, 0xc2, 0xe9, 0x02, 0x0d, 0xa6, 0x25, 0x35, 0xad, 0x32, 0xa5, 
  0x0d, 0x52, 0x08, 0xeb, 0x9a, 0xdc, 0x1c, 0x2a, 0x05, 0xc3, 0xc8, 0x0d, 
  0x38, 0x1e, 0x15, 0x18, 0xe7, 0x45, 0x2b, 0x9d, 0x1c, 0xa5, 0x32, 0xbd, 
  0xef, 0x28, 0xc7, 0xe7, 0x32, 0xb3, 0xc8, 0x2e, 0xa3, 0x3e, 0xf0, 0xca, 
  0x16, 0x02, 0x04, 0x34, 0x94, 0x40, 0xdf, 0xf2, 0xb0, 0x97, 0xb1, 0x12, 
  0x40, 0xba, 0x2d, 0x45, 0x37, 0xf8, 0xfe, 0xa3, 0x20, 0xc4, 0x38, 0xe4, 
  0x43, 0xb4, 0x13, 0xfe, 0x4f, 0xe9, 0x5e, 0x3b, 0x12, 0x33, 0x01, 0xac, 
  0xf8, 0xd6, 0xcb, 0x15, 0x50, 0x02, 0x98, 0x16, 0x46, 0xa5, 0xba, 0xd6, 
  0xdc, 0xd0, 0xab, 0xd1, 0x1b, 0xf1, 0x13, 0xa7, 0x54, 0x93, 0xe5, 0x06, 
  0xf4, 0xf5, 0xcd, 0xf9, 0xd0, 0x38, 0x11, 0x0e, 0xe3, 0x3d, 0xce, 0x9c, 
  0xca, 0xba, 0x1b, 0x2e, 0x57, 0xff, 0xf0, 0x22, 0x54, 0x25, 0xe6, 0x42, 
  0x10, 0x0b, 0x2f, 0xdc, 0x49, 0xc0, 0x8b, 0xc1, 0x38, 0x4b, 0x50, 0xa7, 
  0xf6, 0x3b, 0x35, 0x96, 0xe7, 0x25, 0x04, 0x21, 0xfb, 0x34, 0xb6, 0x26, 
  0x40, 0x11, 0xf3, 0x2e, 0xf4, 0x27, 0x11, 0x09, 0xa5, 0xe5, 0x04, 0xc7, 
  0x0e, 0xf1, 0xc4, 0xf3, 0x5b, 0x3e, 0xbc, 0x47, 0x45, 0xd8, 0x20, 0xe5, 
  0xee, 0x03, 0xc7, 0xfa, 0xa8, 0xbb, 0xf3, 0xa0, 0xf6, 0x5c, 0xf1, 0x0a, 
  0xc7, 0xb1, 0xdd, 0x0d, 0x14, 0x09, 0xd2, 0xf6, 0xd5, 0x8c, 0xe8, 0xc5, 
  0x65, 0x39, 0x0f, 0x29, 0x05, 0xc4, 0x23, 0xaf, 0xd3, 0xfd, 0xbe, 0xf2, 
  0xb3, 0x19, 0xfa, 0xac, 0xe7, 0x7c, 0xe0, 0xc4, 0x14, 0xdb, 0xe3, 0xde, 
  0xae, 0x38, 0xa5, 0xae, 0xfd, 0xe0, 0x9c, 0x90, 0x35, 0x30, 0xf3, 0x1b, 
  0x05, 0xf4, 0x1a, 0x8d, 0xac, 0x3c, 0x97, 0xf9, 0xca, 0x05, 0x1a, 0xab, 
  0x16, 0x2a, 0x1a, 0x1b, 0xb9, 0xcb, 0x09, 0x28, 0xb3, 0xf0, 0xde, 0xc2, 
  0x29, 0xf1, 0x9c, 0xa1, 0x43, 0xd9, 0x00, 0xf6, 0xfe, 0x97, 0x32, 0xa7, 
  0xf3, 0xde, 0xe9, 0x08, 0x14, 0x1a, 0x2e, 0x1a, 0x0f, 0x15, 0xd3, 0xe5, 
  0xff, 0x19, 0xd2, 0x06, 0xe3, 0xfa, 0xba, 0xfa, 0x2d, 0x02, 0x06, 0xb3, 
  0x3d, 0x44, 0x2b, 0x43, 0xf8, 0xff, 0xee, 0x94, 0x00, 0xf7, 0xad, 0xf3, 
  0xda, 0xc8, 0x41, 0xea, 0xcf, 0x0e, 0x16, 0x04, 0xd7, 0xef, 0x9c, 0xb4, 
  0xb4, 0x19, 0xf3, 0x01, 0x2d, 0xab, 0x00, 0x9b, 0x03, 0xf8, 0xeb, 0x4a, 
  0x19, 0x04, 0x13, 0x96, 0x87, 0x23, 0xbd, 0xd9, 0xf7, 0xf6, 0x4c, 0xd2, 
  0x1a, 0x38, 0x0c, 0x24, 0xfa, 0xd5, 0xd0, 0x30, 0xce, 0x61, 0xa3, 0xb9, 
  0x3e, 0xfe, 0x9f, 0xf8, 0xee, 0x17, 0x02, 0x55, 0x2a, 0xda, 0xec, 0xcc, 
  0x19, 0xd4, 0xd0, 0x2e, 0x0f, 0xbb, 0xff, 0xdc, 0x22, 0x67, 0xaf, 0xb1, 
  0xcc, 0xdf, 0xb0, 0x04, 0xa0, 0x3f, 0x14, 0xdc, 0xc9, 0xbc, 0xda, 0xeb, 
  0x37, 0xf1, 0xea, 0x23, 0x2b, 0xf5, 0xc6, 0xd1, 0xf3, 0xf7, 0xd0, 0xe6, 
  0x17, 0xc7, 0x25, 0xe0, 0x09, 0x4e, 0xac, 0xd9, 0x19, 0xd5, 0xa2, 0xc0, 
  0x91, 0xed, 0xf1, 0xc9, 0xce, 0xb2, 0xcc, 0x01, 0x21, 0x4c, 0xd2, 0x1e, 
  0x35, 0xec, 0xf5, 0xf9, 0xd7, 0x10, 0xc9, 0x08, 0xf1, 0xf1, 0x1c, 0xa8, 
  0x03, 0x16, 0xbf, 0xed, 0xa4, 0x81, 0xb1, 0x2d, 0x4f, 0xdd, 0x18, 0x3f, 
  0xee, 0x66, 0x22, 0x44, 0xe4, 0x1a, 0xf7, 0x1b, 0x35, 0x22, 0x3a, 0x54, 
  0x49, 0x1c, 0x42, 0x06, 0x29, 0xf5, 0x1f, 0x65, 0x59, 0xb8, 0x09, 0x53, 
  0x33, 0x47, 0x3b, 0x2e, 0x0b, 0x2d, 0x5d, 0x1b, 0x08, 0x78, 0x55, 0x29, 
  0xc2, 0x00, 0xeb, 0xfa, 0xff, 0x38, 0x51, 0x13, 0x29, 0x1d, 0x54, 0x41, 
  0x39, 0x54, 0x02, 0x4c, 0x46, 0xc1, 0xff, 0x1f, 0x1e, 0x17, 0x1a, 0xf7, 
  0x49, 0xd6, 0x27, 0x29, 0xfd, 0x23, 0x3a, 0x73, 0xdc, 0xe2, 0xf4, 0xf8, 
  0x29, 0x4e, 0x31, 0x5a, 0x51, 0xdb, 0x3f, 0x4b, 0x0b, 0x40, 0xfe, 0x3a, 
  0x53, 0xd9, 0x49, 0x41, 0x44, 0x7f, 0x50, 0xfe, 0x56, 0x1c, 0x4d, 0x21, 
  0x38, 0x57, 0x78, 0x4a, 0x23, 0x15, 0xed, 0x35, 0xdd, 0x45, 0x35, 0x52, 
  0x7a, 0x3b, 0x5d, 0x01, 0x41, 0x2b, 0x0b, 0x01, 0x4e, 0xb9, 0x23, 0x17, 
  0x0b, 0x47, 0x4d, 0x0e, 0x67, 0xee, 0x4f, 0x70, 0xfa, 0x2a, 0x18, 0x2d, 
  0xdc, 0x40, 0xf6, 0x09, 0x37, 0x2b, 0x42, 0x14, 0x4a, 0x3e, 0x1c, 0x54, 
  0x0e, 0x51, 0x0e, 0x00, 0x42, 0xdd, 0xf4, 0x10, 0x19, 0x20, 0x10, 0x34, 
  0x37, 0x11, 0x62, 0x02, 0x46, 0x62, 0x73, 0x1e, 0x1e, 0xd1, 0xec, 0x07, 
  0xe8, 0x56, 0x01, 0x75, 0x25, 0x19, 0x12, 0x0e, 0xf9, 0x5c, 0xfe, 0x43, 
  0x5c, 0xfc, 0x4d, 0x62, 0x49, 0x33, 0x55, 0x04, 0x30, 0x0c, 0x75, 0x47, 
  0xf3, 0x5a, 0x27, 0x68, 0x20, 0x0a, 0xf7, 0x26, 0xd3, 0x28, 0x05, 0x6d, 
  0x1d, 0x3d, 0x39, 0xf6, 0x13, 0x23, 0x3a, 0x54, 0x6a, 0xd3, 0xf6, 0x45, 
  0x4f, 0x2f, 0x62, 0x49, 0x0f, 0xeb, 0x08, 0xfd, 0x26, 0x17, 0x5e, 0x7f, 
  0x2a, 0xf2, 0x3a, 0xe9, 0xdf, 0x48, 0x58, 0x5a, 0x5e, 0x47, 0x76, 0xfe, 
  0x1f, 0x12, 0xce, 0x05, 0x6d, 0x20, 0xfe, 0x63, 0x1c, 0x44, 0x61, 0xfa, 
  0x5c, 0xe9, 0x77, 0x37, 0x10, 0x3a, 0x7c, 0x27, 0xc5, 0xe5, 0x19, 0x08, 
  0xd4, 0x60, 0x0a, 0x24, 0x27, 0xee, 0x34, 0x3b, 0x41, 0x62, 0xfd, 0x0b, 
  0x63, 0xe4, 0x54, 0x0c, 0x31, 0x4a, 0x5c, 0x4c, 0x5e, 0xd0, 0xbb, 0x3e, 
  0x26, 0x41, 0xeb, 0x67, 0x50, 0xe5, 0xcd, 0x66, 0xe9, 0x2f, 0xe1, 0xef, 
  0x0f, 0x04, 0xf5, 0x38, 0xa5, 0x81, 0x81, 0xd1, 0x09, 0xf1, 0xe3, 0xd1, 
  0xec, 0xb7, 0xf8, 0x42, 0x5d, 0xba, 0x73, 0x4f, 0x73, 0x48, 0x41, 0x36, 
  0xba, 0xbe, 0x6d, 0x0a, 0x85, 0x3c, 0x88, 0x97, 0x79, 0xcf, 0xe0, 0xbc, 
  0x47, 0x92, 0xd6, 0x2a, 0xa2, 0xbf, 0x1c, 0xcf, 0xeb, 0xf9, 0xd4, 0x20, 
  0xd0, 0xa6, 0xa4, 0x9b, 0x04, 0x2c, 0x85, 0x8c, 0xd5, 0x23, 0x40, 0x02, 
  0xa4, 0xb6, 0x5f, 0x11, 0xf9, 0x15, 0xd6, 0xf0, 0x8e, 0xf5, 0x62, 0x5a, 
  0xcb, 0x25, 0xb1, 0xd5, 0x2b, 0x53, 0x2b, 0x15, 0x2a, 0xb4, 0x68, 0x04, 
  0x64, 0xfc, 0x34, 0xa7, 0x04, 0x89, 0xad, 0xe5, 0x64, 0xb0, 0x95, 0x1f, 
  0x4b, 0xdb, 0x74, 0xa1, 0xfe, 0x43, 0xe8, 0x99, 0x32, 0x50, 0x5d, 0x38, 
  0xf6, 0x06, 0x19, 0x2c, 0xd5, 0xfc, 0xf5, 0x68, 0xb8, 0x8a, 0xc1, 0x4c, 
  0x40, 0x55, 0x65, 0xed, 0xff, 0x94, 0xf4, 0xf3, 0xae, 0xe0, 0x78, 0x29, 
  0xa4, 0x2e, 0xb8, 0x6a, 0xa7, 0xd8, 0x86, 0x9f, 0xd6, 0x25, 0xc5, 0x11, 
  0x09, 0x28, 0x68, 0x68, 0x56, 0x9f, 0xad, 0xb5, 0x71, 0x42, 0x70, 0x9f, 
  0xfb, 0x12, 0x0b, 0xe7, 0xe2, 0x71, 0x25, 0x03, 0x91, 0xc6, 0x88, 0x9c, 
  0x9c, 0xe4, 0xbd, 0xaa, 0x74, 0x00, 0x8e, 0x55, 0x08, 0x57, 0xcc, 0xe6, 
  0x41, 0xfb, 0x16, 0xf2, 0x61, 0x8e, 0xeb, 0x1d, 0xec, 0x34, 0x2e, 0x40, 
  0xab, 0xc3, 0x2c, 0x74, 0x16, 0xc7, 0xf3, 0xc7, 0x97, 0x30, 0x89, 0x9d, 
  0x12, 0xce, 0xf0, 0x39, 0x01, 0xb0, 0x9c, 0xa3, 0x9b, 0xad, 0xfb, 0x04, 
  0x0f, 0x2a, 0x2f, 0x76, 0xcc, 0xb8, 0x8d, 0x85, 0x62, 0x41, 0x41, 0xf2, 
  0xa5, 0x8b, 0x64, 0x9b, 0x60, 0xcc, 0x94, 0x05, 0x96, 0xa2, 0xd3, 0x87, 
  0xb6, 0xf9, 0x41, 0x6d, 0xd7, 0x6a, 0xe6, 0x1d, 0x0a, 0xca, 0x88, 0xd4, 
  0x71, 0x20, 0x12, 0x67, 0xc2, 0xa2, 0x00, 0x5b, 0x96, 0xb5, 0x45, 0xce, 
  0x6b, 0x13, 0x9d, 0x25, 0x6c, 0xb0, 0xc5, 0x62, 0x60, 0x09, 0x11, 0xa8, 
  0x17, 0x5a, 0xe4, 0xea, 0xab, 0xaa, 0x65, 0x49, 0x00, 0x91, 0xa6, 0x3a, 
  0x9f, 0xc6, 0x8a, 0x0a, 0x52, 0x1d, 0xdb, 0x41, 0x9c, 0x18, 0xe8, 0xaa, 
  0x2b, 0xff, 0xfe, 0xc8, 0xcb, 0xc2, 0xe9, 0xf0, 0x67, 0xf3, 0xa3, 0xe6, 
  0x3c, 0xbf, 0x4d, 0x15, 0xec, 0x24, 0x1a, 0x93, 0x2b, 0xac, 0x0f, 0x0f, 
  0xb0, 0x3e, 0x87, 0x1f, 0xc4, 0xa5, 0x8e, 0x51, 0x85, 0x2f, 0xd9, 0x5f, 
  0x4f, 0x1f, 0xa6, 0x05, 0x65, 0x15, 0xd9, 0xf3, 0x0f, 0x13, 0x9a, 0xc3, 
  0x65, 0x8b, 0xb6, 0x0f, 0x8c, 0x07, 0xeb, 0xf0, 0xe0, 0x5f, 0xbe, 0x58, 
  0x73, 0xe8, 0x53, 0xc5, 0xab, 0x35, 0x19, 0x11, 0x1f, 0xae, 0x6a, 0x8f, 
  0x58, 0xf6, 0x5a, 0xb4, 0xfb, 0xc1, 0xbc, 0xed, 0xaf, 0xe8, 0x8d, 0xde, 
  0x94, 0xe2, 0xe6, 0x21, 0xf4, 0xce, 0x07, 0x49, 0xca, 0xe9, 0x42, 0xc1, 
  0x4a, 0xd6, 0x05, 0x1b, 0x50, 0x98, 0x12, 0x69, 0xf8, 0xb4, 0x41, 0x73, 
  0x13, 0x57, 0x6d, 0xd5, 0x5e, 0x31, 0x15, 0x25, 0x34, 0x12, 0xc2, 0xc4, 
  0x60, 0x6b, 0x12, 0xab, 0xab, 0xe3, 0x69, 0xaa, 0x41, 0x13, 0x5d, 0xaa, 
  0x9e, 0x5d, 0x14, 0x61, 0xb1, 0x42, 0x04, 0x49, 0x47, 0xa3, 0xa5, 0xe6, 
  0x56, 0x67, 0xb4, 0x9c, 0x2b, 0x1b, 0xa4, 0xa5, 0x2a, 0xbc, 0x85, 0x99, 
  0x45, 0x5b, 0xb1, 0xf6, 0xd7, 0x8c, 0x6a, 0x0c, 0xf2, 0xa8, 0x8d, 0xf9, 
  0xe1, 0xb1, 0xe9, 0x34, 0x56, 0x18, 0x48, 0x4c, 0xbe, 0x9c, 0xc6, 0x3b, 
  0xf8, 0x66, 0xe6, 0x81, 0x1a, 0xcd, 0xc6, 0xf1, 0xb8, 0x44, 0xae, 0x98, 
  0x10, 0x16, 0x1e, 0x1f, 0xd8, 0xcd, 0x61, 0x26, 0xd1, 0x65, 0x90, 0xa7, 
  0xf8, 0x16, 0xc6, 0xf3, 0x9e, 0xaa, 0xe7, 0x2e, 0x63, 0x25, 0xcf, 0xfd, 
  0xef, 0x9e, 0x8c, 0x1a, 0x17, 0xe9, 0xf3, 0x37, 0x45, 0xeb, 0x55, 0xb4, 
  0xc1, 0xd5, 0xb3, 0x98, 0xe6, 0xdd, 0xcf, 0x16, 0xd4, 0x3e, 0xad, 0x5a, 
  0xc4, 0x59, 0xd3, 0x9c, 0xf9, 0x8d, 0x9d, 0x0f, 0x9a, 0xf9, 0xa6, 0xbf, 
  0x9e, 0x9e, 0xb7, 0x60, 0x16, 0xc3, 0x39, 0xf4, 0xf7, 0xbe, 0x1c, 0xa4, 
  0x05, 0x3c, 0xa4, 0x9e, 0x17, 0xef, 0x2e, 0x4b, 0x57, 0x37, 0x54, 0x53, 
  0x31, 0xa0, 0x58, 0xd2, 0xda, 0x29, 0xfc, 0x00, 0x18, 0xdc, 0x57, 0x05, 
  0xb9, 0x71, 0x06, 0x57, 0x0f, 0xae, 0x4e, 0xd0, 0x26, 0x30, 0xba, 0x18, 
  0xf2, 0x16, 0x55, 0xfa, 0xc3, 0x37, 0xe6, 0x14, 0xc4, 0x9f, 0x00, 0xac, 
  0xc4, 0xe9, 0xda, 0x1b, 0xa6, 0xa5, 0xef, 0xb8, 0x0b, 0xf4, 0xa4, 0x25, 
  0xe1, 0xbb, 0x8a, 0xbf, 0x5d, 0x65, 0xf9, 0x15, 0x38, 0x5d, 0x1b, 0x42, 
  0x1f, 0x20, 0x85, 0x28, 0xb9, 0x88, 0xba, 0x82, 0x5c, 0x9b, 0xf0, 0xad, 
  0x5b, 0x09, 0x8b, 0x98, 0xb3, 0x49, 0x10, 0x52, 0xad, 0xad, 0x16, 0xee, 
  0x35, 0xac, 0x19, 0x1b, 0x25, 0x89, 0x14, 0x0b, 0x37, 0xc6, 0x83, 0x28, 
  0x6f, 0x53, 0x92, 0x02, 0x5d, 0xfe, 0x2d, 0x10, 0xc4, 0xad, 0x8c, 0x69, 
  0x94, 0xde, 0x41, 0x27, 0xac, 0xab, 0xbe, 0xa1, 0x03, 0x07, 0x9c, 0xee, 
  0xb5, 0x04, 0x33, 0x12, 0xbd, 0x56, 0x82, 0x64, 0xd6, 0x81, 0xe8, 0xc0, 
  0x1f, 0x1c, 0xc6, 0xaf, 0x4a, 0x23, 0x30, 0x33, 0x8b, 0x5f, 0xf5, 0xda, 
  0xc1, 0xc1, 0xbe, 0xcb, 0x33, 0x66, 0xb9, 0x57, 0xad, 0x0a, 0xde, 0xed, 
  0x82, 0xbf, 0x45, 0x28, 0x67, 0x86, 0xf0, 0xcc, 0xf8, 0x39, 0x25, 0x3b, 
  0xa8, 0x39, 0xa3, 0x07, 0x0b, 0xd9, 0x52, 0x91, 0x05, 0xe1, 0xa3, 0x38, 
  0x4d, 0x9b, 0x5c, 0xdb, 0x31, 0x55, 0x08, 0x5c, 0xb9, 0x1e, 0xa8, 0xfd, 
  0x35, 0x8c, 0xb2, 0x82, 0xed, 0x91, 0x30, 0x8d, 0xa4, 0x67, 0xf6, 0xb1, 
  0x31, 0xfa, 0x15, 0x4f, 0x62, 0x5d, 0x98, 0xeb, 0xbf, 0xbe, 0x15, 0xe4, 
  0x88, 0x00, 0xa0, 0x3a, 0x9b, 0xb0, 0x19, 0x11, 0x1f, 0x50, 0x19, 0xaa, 
  0xad, 0xe5, 0x3f, 0x5a, 0x8d, 0x30, 0x82, 0x33, 0x66, 0xe3, 0xad, 0x2d, 
  0xda, 0x55, 0x29, 0xe8, 0x56, 0xee, 0x57, 0x3b, 0xb5, 0xce, 0x45, 0xe2, 
  0xda, 0x55, 0x21, 0x6c, 0xef, 0xb3, 0x92, 0xfe, 0xf0, 0x32, 0x8f, 0x83, 
  0x1a, 0xef, 0x96, 0xd4, 0x48, 0x0e, 0x66, 0xb0, 0x91, 0x60, 0xec, 0x1a, 
  0x63, 0x8b, 0xbc, 0x0f, 0x20, 0x8f, 0x58, 0xdd, 0x1a, 0x26, 0x13, 0x4d, 
  0x8c, 0xe0, 0x40, 0xab, 0x17, 0x1b, 0x95, 0xe6, 0xd4, 0xc6, 0xeb, 0xc9, 
  0xd6, 0x6a, 0xcc, 0x4b, 0x47, 0x65, 0x00, 0xdf, 0x8d, 0xd1, 0xd1, 0x1b, 
  0x2f, 0x55, 0x93, 0x94, 0xec, 0x2d, 0xcb, 0x43, 0x49, 0xcf, 0xe5, 0x05, 
  0x3a, 0x21, 0xde, 0xd5, 0x4c, 0xdc, 0xdf, 0x55, 0xcc, 0x2a, 0xc0, 0x22, 
  0xe7, 0xb8, 0x36, 0xa5, 0x08, 0x81, 0xe0, 0x8f, 0x49, 0xcc, 0x1d, 0x6a, 
  0xbc, 0x4d, 0x58, 0xac, 0xdd, 0xab, 0x25, 0x61, 0xd3, 0x90, 0x09, 0xe4, 
  0xc3, 0x70, 0x51, 0x9a, 0x9f, 0xdd, 0xc9, 0xb1, 0x03, 0x9a, 0x96, 0xb2, 
  0xd4, 0x30, 0xcf, 0x60, 0x27, 0xf9, 0x63, 0xce, 0x0f, 0x81, 0xe5, 0xc5, 
  0x97, 0x49, 0x43, 0xce, 0xf1, 0xe9, 0x66, 0x5b, 0x0a, 0xee, 0x19, 0xfa, 
  0xe4, 0x5f, 0x02, 0xff, 0x2a, 0x5e, 0xa2, 0x31, 0xd0, 0x50, 0xcb, 0xdc, 
  0xd6, 0x48, 0xf0, 0xeb, 0x56, 0x0e, 0x68, 0xc4, 0xe6, 0xbd, 0xbf, 0xfd, 
  0x5c, 0x51, 0xf4, 0xd0, 0x63, 0x9a, 0x41, 0xeb, 0x2e, 0xbc, 0x48, 0x8d, 
  0x8a, 0x43, 0x31, 0xf4, 0xec, 0x44, 0x2f, 0x24, 0xe2, 0x18, 0x60, 0x45, 
  0xca, 0x2b, 0xff, 0x26, 0x35, 0x49, 0x50, 0xd1, 0x14, 0x33, 0xd2, 0x4b, 
  0x2e, 0x96, 0xff, 0xd7, 0xfd, 0x18, 0xec, 0x63, 0xb2, 0xb1, 0x5b, 0x61, 
  0xe3, 0x1b, 0x4e, 0x16, 0x97, 0x33, 0xcd, 0xb2, 0x2e, 0x20, 0x2f, 0xd4, 
  0xe8, 0x94, 0xf0, 0x5e, 0x03, 0x3e, 0x04, 0x08, 0xe0, 0xc1, 0x13, 0xb8, 
  0x15, 0x50, 0xbe, 0x1d, 0xb4, 0xd1, 0xa1, 0x14, 0x21, 0xa5, 0x0d, 0xa7, 
  0x61, 0xac, 0x29, 0xc5, 0x8b, 0xd1, 0x21, 0xcd, 0x82, 0x49, 0x3d, 0xbb, 
  0x9a, 0xc6, 0xd3, 0x56, 0x8e, 0x36, 0xf9, 0xd5, 0x5f, 0x08, 0x2c, 0xbb, 
  0x2b, 0x3a, 0x11, 0x2d, 0xb5, 0x8b, 0xad, 0x43, 0x05, 0xe8, 0xe5, 0xab, 
  0x18, 0x3a, 0xdc, 0x25, 0xbc, 0x61, 0x1a, 0x2f, 0x9f, 0xf1, 0xb4, 0x52, 
  0xeb, 0x04, 0xb9, 0xc7, 0xe6, 0x61, 0xcb, 0x17, 0x69, 0x21, 0x1c, 0x38, 
  0x4e, 0x4e, 0x2d, 0x44, 0xef, 0x09, 0x17, 0xda, 0xf6, 0x41, 0xf6, 0x22, 
  0x67, 0xe1, 0x1e, 0x17, 0x2b, 0x0f, 0x1e, 0x55, 0x1c, 0xd2, 0x10, 0x15, 
  0x1b, 0x3f, 0x4b, 0x43, 0x07, 0xf7, 0x16, 0x22, 0xef, 0x6f, 0x1c, 0x61, 
  0x20, 0xe6, 0xcc, 0x2b, 0x21, 0x5f, 0x16, 0x43, 0x4a, 0x3b, 0x2f, 0x10, 
  0xfd, 0x3d, 0x18, 0x0a, 0x22, 0xb5, 0x5a, 0x0a, 0x5a, 0x43, 0x1d, 0x06, 
  0x29, 0x08, 0x27, 0x0e, 0xfb, 0x4a, 0x44, 0x6d, 0x26, 0xea, 0xe7, 0xe9, 
  0xef, 0x32, 0xfb, 0x5d, 0x73, 0x0e, 0x2a, 0x52, 0x52, 0x4c, 0xdf, 0x11, 
  0x63, 0xc9, 0x26, 0x08, 0x2e, 0x75, 0x4c, 0x04, 0x1f, 0x00, 0x69, 0x52, 
  0xfe, 0x14, 0x3c, 0x2d, 0x04, 0x19, 0xe8, 0xda, 0x0f, 0x45, 0x2c, 0x12, 
  0x24, 0x18, 0x79, 0xfb, 0x0f, 0x34, 0xe8, 0x27, 0x72, 0xbb, 0x00, 0x5c, 
  0x38, 0x46, 0x1a, 0x03, 0x08, 0xc6, 0x19, 0x58, 0x3a, 0x66, 0x11, 0x72, 
  0xd2, 0x08, 0xf3, 0x19, 0x05, 0x66, 0x4a, 0x2d, 0x4e, 0x14, 0x42, 0x37, 
  0x58, 0x2f, 0xde, 0x3a, 0x63, 0xd7, 0x47, 0x00, 0x4a, 0x3e, 0x22, 0xfd, 
  0x57, 0x06, 0x4e, 0x6b, 0x53, 0x22, 0x36, 0x52, 0xd3, 0x3e, 0x33, 0x28, 
  0xd9, 0x11, 0xe9, 0x7f, 0x58, 0x15, 0x77, 0x4b, 0x0c, 0x0c, 0xe9, 0x01, 
  0x75, 0xe4, 0x46, 0x49, 0xf7, 0x6d, 0x1d, 0xf6, 0x02, 0xef, 0x2d, 0x3b, 
  0x4c, 0x60, 0x68, 0x2a, 0x0a, 0x33, 0xfc, 0x3a, 0xe6, 0x4c, 0x2b, 0x26, 
  0x51, 0xe4, 0x17, 0xfc, 0x18, 0x60, 0x36, 0x67, 0x69, 0xdb, 0x43, 0x24, 
  0x3f, 0x3d, 0x07, 0xfc, 0x44, 0xf0, 0x6a, 0x01, 0xec, 0x43, 0x4e, 0x3e, 
  0x25, 0x31, 0xe2, 0xed, 0x22, 0x79, 0x03, 0x4e, 0x23, 0xe1, 0x2e, 0x07, 
  0x35, 0x4a, 0x22, 0x63, 0x50, 0xdc, 0x4e, 0xfc, 0x44, 0x39, 0x28, 0x45, 
  0x55, 0x15, 0x19, 0x4f, 0x52, 0x17, 0x13, 0x2d, 0x24, 0xf5, 0xdc, 0xd2, 
  0xd0, 0x64, 0x37, 0x3e, 0x5e, 0xfc, 0x76, 0x13, 0x0c, 0x17, 0x18, 0x3f, 
  0x75, 0x17, 0x30, 0x59, 0x40, 0x61, 0x0c, 0x16, 0x37, 0xce, 0x2a, 0x70, 
  0x05, 0x3b, 0x46, 0x24, 0x15, 0x3a, 0xc8, 0xe6, 0xd5, 0x33, 0x11, 0x55, 
  0x3e, 0xfe, 0x5e, 0x2d, 0xf7, 0x21, 0xf0, 0x27, 0x56, 0x1e, 0x28, 0x48, 
  0x46, 0x6c, 0x17, 0xfc, 0x20, 0x22, 0x38, 0x06, 0x1b, 0x64, 0x3d, 0x45, 
  0xdb, 0xff, 0xde, 0xeb, 0xe2, 0x67, 0x36, 0x53, 0x7a, 0x19, 0x38, 0x08, 
  0x15, 0x63, 0x0b, 0x0c, 0x09, 0x04, 0x28, 0x13, 0x1f, 0x2c, 0x16, 0xea, 
  0x62, 0x02, 0x44, 0x0d, 0x44, 0x68, 0x4a, 0x7f, 0xd2, 0x1b, 0x1b, 0xe6, 
  0xd0, 0x3e, 0x0f, 0x42, 0x3c, 0xe5, 0x20, 0x2f, 0xf8, 0x61, 0x1a, 0x33, 
  0x30, 0xbd, 0x4b, 0x32, 0x08, 0x36, 0x61, 0x32, 0x13, 0xd8, 0x39, 0x01, 
  0xf0, 0x58, 0x66, 0x30, 0xd9, 0x23, 0x1c, 0x20, 0x28, 0x14, 0x4a, 0x35, 
  0x7e, 0xf4, 0x47, 0x18, 0x27, 0x07, 0x0d, 0x58, 0x0b, 0xe5, 0x03, 0x3a, 
  0x56, 0x2f, 0x57, 0x12, 0x4e, 0xd5, 0x13, 0x37, 0x36, 0x30, 0x17, 0x25, 
  0x09, 0x14, 0xd5, 0xd8, 0x33, 0x21, 0x14, 0x3d, 0x43, 0x49, 0x34, 0x3d, 
  0x34, 0x25, 0x35, 0x00, 0x59, 0xf1, 0x02, 0x29, 0x34, 0x2f, 0x09, 0xf4, 
  0x54, 0x0c, 0x70, 0x63, 0x47, 0x16, 0x24, 0x19, 0x2a, 0x2b, 0xdf, 0x28, 
  0xcf, 0x2d, 0x39, 0x55, 0x5d, 0x0d, 0x52, 0x06, 0x29, 0x07, 0xff, 0x48, 
  0x6e, 0xef, 0x10, 0x0a, 0x40, 0x75, 0x4d, 0x2d, 0x63, 0x3c, 0x69, 0x0f, 
  0x52, 0x6c, 0x4e, 0x25, 0xe7, 0x24, 0x26, 0xf6, 0x36, 0x30, 0x11, 0x4d, 
  0x3c, 0xe7, 0x60, 0x3a, 0x61, 0xf3, 0x21, 0x06, 0x74, 0x0b, 0x1a, 0x41, 
  0x2c, 0x11, 0x4c, 0x32, 0x11, 0xcc, 0x15, 0x46, 0x2b, 0x6a, 0x0c, 0x32, 
  0xcf, 0x43, 0x06, 0x16, 0xdb, 0x30, 0x15, 0x52, 0x79, 0x46, 0x72, 0xeb, 
  0x5e, 0x5a, 0x20, 0x34, 0x27, 0xdc, 0x17, 0x4e, 0x36, 0x62, 0x1d, 0x04, 
  0x35, 0xfb, 0x62, 0x28, 0x32, 0x37, 0x68, 0x32, 0xef, 0xd8, 0xee, 0x16, 
  0xe3, 0x37, 0x4f, 0x3f, 0x29, 0x07, 0x6c, 0x1d, 0x3d, 0x63, 0xdd, 0x04, 
  0x13, 0xc0, 0x44, 0x1d, 0xf9, 0x6d, 0x4c, 0x34, 0x5a, 0xdc, 0x41, 0x04, 
  0xfb, 0x3c, 0x22, 0x36, 0x17, 0x20, 0x34, 0x3d, 0xd2, 0x25, 0x20, 0x6a, 
  0x67, 0x38, 0x46, 0xf9, 0x3d, 0x11, 0x25, 0x29, 0x36, 0xd8, 0x42, 0xf0, 
  0x25, 0x66, 0x08, 0x49, 0x51, 0xd4, 0x4d, 0x0a, 0x10, 0x77, 0x0f, 0x7b, 
  0x18, 0x2c, 0x2f, 0x1b, 0xf8, 0x41, 0x10, 0x7f, 0x31, 0x2d, 0x6c, 0xf1, 
  0x37, 0x56, 0xdc, 0x47, 0x0d, 0xf7, 0x07, 0x21, 0x13, 0x5a, 0x36, 0xec, 
  0x46, 0xff, 0x56, 0x36, 0x2f, 0x45, 0x11, 0x50, 0xd7, 0x39, 0x11, 0xc6, 
  0xe3, 0x2c, 0x43, 0x25, 0x61, 0x37, 0x34, 0x04, 0x11, 0xfd, 0x33, 0x4e, 
  0x36, 0xf7, 0x31, 0x4f, 0x4a, 0x2a, 0x4c, 0x4c, 0x06, 0xf1, 0x63, 0x59, 
  0x00, 0x48, 0x48, 0x69, 0xc9, 0x18, 0xf8, 0x1a, 0x3c, 0x15, 0xf5, 0x59, 
  0x6a, 0xff, 0x1f, 0x10, 0x09, 0x25, 0xd6, 0x26, 0x38, 0xd1, 0x3d, 0x25, 
  0x34, 0x65, 0x37, 0x03, 0x0b, 0x17, 0x3d, 0x62, 0xe7, 0x30, 0x5f, 0x75, 
  0x2f, 0x0b, 0x28, 0xd1, 0xd2, 0x37, 0x44, 0x64, 0x26, 0xdd, 0x6c, 0x42, 
  0x5d, 0x37, 0x0f, 0x15, 0x4c, 0xf0, 0x30, 0xf6, 0x39, 0x36, 0x42, 0x0c, 
  0x29, 0x29, 0x48, 0x2e, 0x47, 0x60, 0x30, 0x1c, 0x25, 0x1c, 0x19, 0xe1, 
  0xcd, 0x67, 0x0e, 0x4a, 0x58, 0xef, 0x1b, 0x42, 0x4c, 0x00, 0xdd, 0x41, 
  0x43, 0x04, 0x29, 0x29, 0x36, 0x1b, 0x29, 0x1c, 0x4d, 0xea, 0x5d, 0x25, 
  0x28, 0x2c, 0x0a, 0x74, 0x12, 0xfa, 0x17, 0x0c, 0x23, 0x75, 0x37, 0x5f, 
  0x76, 0xed, 0x6f, 0x40, 0x20, 0x40, 0x33, 0x45, 0x26, 0xd5, 0x47, 0x10, 
  0x3d, 0x38, 0x2f, 0x54, 0x0d, 0x33, 0x4a, 0x08, 0x19, 0x0e, 0x57, 0x76, 
  0x14, 0x27, 0x0c, 0x0b, 0x0e, 0x28, 0xe8, 0x41, 0x73, 0xe8, 0x6a, 0x46, 
  0x00, 0x58, 0xf6, 0x34, 0x69, 0xfc, 0xff, 0x24, 0x08, 0x48, 0x67, 0x4e, 
  0x48, 0xe3, 0x0b, 0x4f, 0xe5, 0x10, 0x15, 0x3d, 0xe8, 0x36, 0x13, 0xd1, 
  0xc7, 0x6d, 0x0f, 0x5a, 0x7b, 0x17, 0x4c, 0xe4, 0x01, 0x05, 0x05, 0x4a, 
  0x24, 0xe3, 0x58, 0x40, 0x52, 0x25, 0x07, 0xf6, 0x3a, 0xe8, 0x51, 0x2b, 
  0x52, 0x40, 0x57, 0x2d, 0x2d, 0x37, 0xf6, 0xe0, 0xf9, 0x7a, 0x15, 0x48, 
  0x57, 0xe5, 0x6f, 0x31, 0x60, 0x4a, 0x33, 0x10, 0x26, 0xfd, 0xff, 0x2e, 
  0x3a, 0x27, 0x05, 0x47, 0x40, 0x1c, 0x3c, 0x33, 0x23, 0x37, 0x15, 0x3c, 
  0xe8, 0x2e, 0xff, 0xef, 0xd8, 0x7c, 0x51, 0x25, 0x47, 0xe5, 0x2d, 0xf9, 
  0x32, 0x38, 0xd6, 0x6e, 0x2c, 0xbd, 0x52, 0xf3, 0x4d, 0x43, 0x31, 0x52, 
  0x64, 0xe0, 0x52, 0x1f, 0xf8, 0x7f, 0x74, 0x7b, 0xda, 0x2f, 0xec, 0xfe, 
  0x0d, 0x61, 0x0a, 0x57, 0x3b, 0x1d, 0x38, 0xf3, 0x59, 0x27, 0xde, 0x31, 
  0x4c, 0xbe, 0x5b, 0x13, 0x2c, 0x47, 0x5f, 0xff, 0x49, 0x18, 0x66, 0x5f, 
  0x4d, 0x28, 0x68, 0x3b, 0x29, 0x29, 0x19, 0xf3, 0x21, 0x2f, 0x4c, 0x4c, 
  0x2a, 0x13, 0x74, 0xfc, 0x0c, 0x19, 0xf0, 0x31, 0x76, 0xd1, 0x18, 0x09, 
  0x46, 0x11, 0x2e, 0x35, 0x1d, 0xfe, 0x2d, 0x32, 0x4d, 0x47, 0x79, 0x50, 
  0x05, 0xd9, 0x21, 0xff, 0xf7, 0x57, 0xf8, 0x5a, 0x74, 0xfa, 0x31, 0x31, 
  0xfc, 0x2e, 0x3c, 0x49, 0x6e, 0xda, 0x4c, 0x12, 0x55, 0x44, 0x13, 0x42, 
  0x3e, 0xfe, 0x79, 0x5e, 0x0d, 0x30, 0x3c, 0x22, 0xf7, 0xd0, 0xd2, 0xd1, 
  0xe4, 0x58, 0x41, 0x20, 0x19, 0x14, 0x1a, 0xf3, 0x16, 0x1f, 0x1d, 0x54, 
  0x24, 0x06, 0xff, 0x28, 0x05, 0x41, 0x09, 0x4c, 0x47, 0x03, 0x25, 0x12, 
  0x22, 0x4c, 0x14, 0x54, 0xd1, 0x3a, 0x2d, 0x08, 0x0c, 0x3a, 0x36, 0x1f, 
  0x41, 0x3e, 0x6b, 0x57, 0x43, 0x44, 0xe1, 0x22, 0x4a, 0xdb, 0x5f, 0x46, 
  0x14, 0x46, 0x6b, 0x06, 0x3d, 0xd5, 0x39, 0x66, 0x08, 0x67, 0x79, 0x16, 
  0x2d, 0x1f, 0xcd, 0xdd, 0x19, 0x64, 0xfa, 0x6d, 0x3c, 0xf0, 0x32, 0x44, 
  0x22, 0x00, 0x2a, 0x36, 0x1d, 0x12, 0x16, 0x29, 0x61, 0x4b, 0x64, 0x24, 
  0x07, 0x20, 0x25, 0x6e, 0x33, 0x21, 0x60, 0x66, 0xfd, 0x1b, 0x23, 0x33, 
  0x08, 0x50, 0xef, 0x2e, 0x26, 0xfd, 0x28, 0x50, 0x3f, 0x16, 0xe5, 0x45, 
  0x6c, 0xe9, 0x34, 0x53, 0x1b, 0x3e, 0x0f, 0x09, 0x16, 0x24, 0x65, 0x37, 
  0x2c, 0x2f, 0x0b, 0x72, 0x0a, 0xe0, 0xd4, 0x32, 0x12, 0x3d, 0x2b, 0x36, 
  0x1d, 0x20, 0x2c, 0x31, 0x3d, 0x47, 0x2d, 0x10, 0x3d, 0xed, 0x0e, 0x1e, 
  0x5e, 0x29, 0x11, 0x31, 0x16, 0x14, 0x5a, 0x25, 0x42, 0x68, 0x4c, 0x44, 
  0xfe, 0x07, 0xd7, 0x31, 0x0c, 0x48, 0x44, 0x65, 0x4c, 0x24, 0x22, 0x6b, 
  0x04, 0x09, 0x1e, 0x5b, 0x0b, 0xd1, 0x2b, 0x0e, 0x55, 0x59, 0x48, 0x04, 
  0x72, 0xf9, 0x16, 0x28, 0xee, 0x34, 0x3a, 0x40, 0x18, 0xcf, 0x06, 0x15, 
  0x1d, 0x3f, 0x2d, 0x4f, 0x31, 0xdc, 0x75, 0x12, 0x14, 0x05, 0xd7, 0x19, 
  0x0a, 0xec, 0x09, 0x5c, 0x19, 0x15, 0x6f, 0x62, 0x20, 0x12, 0x30, 0x4f, 
  0x4b, 0x47, 0x51, 0x60, 0x29, 0x3b, 0x21, 0x05, 0x12, 0x7e, 0x0d, 0x21, 
  0x10, 0xe9, 0x17, 0x5c, 0x41, 0x2a, 0xfb, 0x29, 0x4b, 0xf4, 0x5e, 0x37, 
  0x1c, 0x6b, 0x31, 0x31, 0x21, 0xd5, 0x46, 0x13, 0x1a, 0x31, 0x78, 0x23, 
  0x21, 0x12, 0xfd, 0x15, 0xee, 0x7f, 0x51, 0x32, 0x79, 0x3f, 0x51, 0x06, 
  0x66, 0x4d, 0xd5, 0x2c, 0x53, 0xd0, 0x33, 0x6e, 0x49, 0x58, 0x56, 0x69, 
  0x5f, 0xbe, 0x3e, 0x35, 0x38, 0x3b, 0x14, 0x1c, 0xec, 0x1e, 0xe3, 0x14, 
  0x14, 0x27, 0x04, 0x51, 0x69, 0xea, 0x5d, 0x2f, 0x62, 0x5d, 0x1e, 0x43, 
  0x37, 0xb8, 0x14, 0x72, 0x08, 0x3c, 0x11, 0x1e, 0x2a, 0xe6, 0x4a, 0x69, 
  0x13, 0x3d, 0x63, 0x66, 0xfe, 0xe3, 0xcc, 0x20, 0xed, 0x1d, 0x0c, 0x59, 
  0x14, 0xf2, 0x4d, 0x40, 0x2b, 0x2a, 0x0c, 0x26, 0x62, 0xd8, 0x48, 0x32, 
  0x20, 0x1e, 0x12, 0x16, 0x16, 0xdb, 0x6f, 0x4c, 0xf1, 0x76, 0x3c, 0x20, 
  0x26, 0x1d, 0xf2, 0xf8, 0xe1, 0x48, 0x44, 0x76, 0x4e, 0x25, 0x15, 0x1d, 
  0x10, 0x1e, 0xe4, 0x5a, 0x5a, 0xd0, 0x5a, 0x17, 0x41, 0x27, 0x36, 0x24, 
  0x6f, 0xc1, 0x1d, 0x2f, 0xf4, 0x26, 0x20, 0x46, 0xdb, 0xef, 0xd7, 0xe9, 
  0x02, 0x1c, 0x4c, 0x51, 0x13, 0x28, 0x22, 0x12, 0x49, 0x0a, 0xec, 0x69, 
  0x17, 0xc7, 0x60, 0x65, 0x2d, 0x1e, 0x40, 0x13, 0x16, 0x35, 0x2a, 0x36, 
  0xfb, 0x11, 0x3d, 0x1d, 0x23, 0x36, 0x08, 0x34, 0x0f, 0x14, 0x17, 0x24, 
  0x62, 0x0d, 0x36, 0x20, 0x1d, 0x1d, 0x1a, 0x4c, 0x17, 0xd7, 0x12, 0xf9, 
  0x00, 0x75, 0x0b, 0x01, 0x1b, 0xd9, 0x31, 0x49, 0x4a, 0x48, 0x5a, 0x6a, 
  0xd3, 0x10, 0x19, 0xcc, 0x1e, 0x55, 0x42, 0x4c, 0x3c, 0x19, 0x4d, 0x0a, 
  0x39, 0x54, 0x22, 0x6a, 0x62, 0xd5, 0x00, 0x58, 0x32, 0x36, 0x33, 0x1c, 
  0x3a, 0x15, 0x58, 0x26, 0xe9, 0x60, 0x28, 0x7f, 0x14, 0xfd, 0xd8, 0xcc, 
  0xcc, 0x38, 0xe8, 0x16, 0x66, 0x0b, 0x73, 0x26, 0x0e, 0x48, 0x02, 0x54, 
  0x6a, 0xac, 0x00, 0xfb, 0x2e, 0x6e, 0x34, 0x05, 0x43, 0xfe, 0x62, 0x66, 
  0x3b, 0x1c, 0x6e, 0x26, 0xff, 0x08, 0xee, 0x3e, 0x03, 0x65, 0x11, 0x29, 
  0x58, 0x3c, 0x68, 0x3d, 0xf1, 0x3c, 0x28, 0x38, 0x72, 0xed, 0xf7, 0x1c, 
  0xfe, 0x78, 0x23, 0x10, 0x25, 0x0a, 0x75, 0x45, 0x40, 0x43, 0x63, 0x23, 
  0xd9, 0x0b, 0x0a, 0x24, 0xf6, 0x7a, 0x3c, 0x62, 0x7e, 0x29, 0x6f, 0x24, 
  0x05, 0x4c, 0xed, 0x5c, 0x33, 0x1f, 0x02, 0x1d, 0x08, 0x44, 0x6d, 0x01, 
  0x3b, 0xf1, 0x14, 0x10, 0x3f, 0x38, 0x39, 0x3e, 0x09, 0x10, 0xf1, 0x10, 
  0x2e, 0x26, 0x47, 0x5c, 0x20, 0x08, 0x3c, 0x38, 0x33, 0x4e, 0x32, 0x37, 
  0x4e, 0xe0, 0x37, 0x03, 0x5d, 0x77, 0x6f, 0x22, 0x09, 0x2d, 0x19, 0x17, 
  0x06, 0x40, 0x66, 0x2f, 0xe6, 0xee, 0x14, 0x0a, 0xd3, 0x6d, 0x59, 0x44, 
  0x44, 0xf0, 0x1b, 0x02, 0x5a, 0x09, 0xed, 0x05, 0x1e, 0xe2, 0x38, 0x3c, 
  0x0a, 0x52, 0x01, 0x49, 0x53, 0x29, 0x66, 0x4e, 0x42, 0x6a, 0x0a, 0x2e, 
  0xd5, 0x1a, 0xcb, 0x04, 0xe0, 0x26, 0x1b, 0x1c, 0x56, 0xf9, 0x35, 0x40, 
  0xf9, 0xf6, 0xdc, 0x63, 0x1d, 0xb0, 0x13, 0x1a, 0x51, 0x23, 0x08, 0xf3, 
  0x59, 0xc3, 0x45, 0x1c, 0x05, 0x60, 0x5c, 0x36, 0x07, 0xf8, 0x12, 0xd3, 
  0x05, 0x5f, 0x2c, 0x4f, 0x48, 0x1b, 0x5d, 0x53, 0x2d, 0x16, 0xcd, 0x38, 
  0x0f, 0x00, 0x54, 0x65, 0x2a, 0x64, 0x2b, 0x5b, 0x65, 0xcc, 0x4d, 0x3a, 
  0x1b, 0x14, 0x75, 0x13, 0xf7, 0x27, 0x28, 0x12, 0xd4, 0x6c, 0x3d, 0x17, 
  0x75, 0xed, 0x27, 0x4a, 0xff, 0x37, 0xdf, 0x4e, 0x63, 0xc4, 0x20, 0x78, 
  0x2c, 0x38, 0x6d, 0x6f, 0x5d, 0x1c, 0x11, 0x6f, 0x0d, 0x2f, 0x1a, 0x23, 
  0xd7, 0xfd, 0x2d, 0xfb, 0xcf, 0x4d, 0x0b, 0x55, 0x19, 0x23, 0x29, 0x6a, 
  0x02, 0x11, 0xf2, 0x71, 0x39, 0x0a, 0x18, 0x2d, 0x6b, 0x70, 0x6a, 0x73, 
  0x69, 0xbd, 0x78, 0x32, 0x1e, 0x6c, 0x07, 0x7f, 0xcc, 0xe9, 0xe7, 0xf7, 
  0xd9, 0x1f, 0x69, 0x38, 0x52, 0x34, 0x5e, 0x2c, 0x27, 0x23, 0x2a, 0x38, 
  0x0f, 0xdc, 0x2d, 0x28, 0x0c, 0x4f, 0x67, 0x78, 0x3c, 0xe3, 0x34, 0x51, 
  0xf6, 0x41, 0x3e, 0x7d, 0x22, 0x02, 0xe5, 0xea, 0xdc, 0x10, 0x1c, 0x2b, 
  0x23, 0xfd, 0x4e, 0x6d, 0x23, 0x3d, 0xd8, 0x2e, 0x6a, 0xc8, 0x4c, 0x4b, 
  0x05, 0x66, 0x24, 0x5a, 0x4a, 0x1c, 0x15, 0x26, 0xec, 0x31, 0x5f, 0x51, 
  0x11, 0xf6, 0x22, 0xfd, 0x25, 0x0e, 0x2f, 0x6e, 0x4e, 0x17, 0x73, 0x47, 
  0x25, 0x20, 0x33, 0x5d, 0x28, 0xce, 0x5e, 0x10, 0x2f, 0x47, 0x45, 0x70, 
  0x5f, 0xcf, 0x60, 0x18, 0x2c, 0x3f, 0x55, 0x4a, 0xd4, 0xf4, 0xc8, 0x18, 
  0xd7, 0x29, 0x4c, 0x66, 0x4a, 0x1a, 0x2a, 0x3c, 0x02, 0x22, 0x34, 0x4f, 
  0x34, 0x08, 0x4a, 0x5b, 0x10, 0x5e, 0x3c, 0x3e, 0x4f, 0xda, 0x15, 0x4f, 
  0x21, 0x1a, 0x48, 0x74, 0x2f, 0xfd, 0x04, 0x47, 0x1e, 0x3c, 0x28, 0x71, 
  0x75, 0x55, 0x75, 0x1f, 0x2e, 0x60, 0x07, 0x24, 0x51, 0x07, 0x1d, 0x2c, 
  0x5f, 0x54, 0x6a, 0x1e, 0x20, 0x02, 0x58, 0x1a, 0xec, 0x71, 0x10, 0x42, 
  0x08, 0xec, 0x24, 0x04, 0x23, 0x30, 0x20, 0x6e, 0x73, 0x31, 0x10, 0x25, 
  0x23, 0x52, 0x19, 0x68, 0x3b, 0xb0, 0x23, 0x6a, 0x51, 0x41, 0x46, 0x59, 
  0x20, 0x04, 0x61, 0x72, 0x3f, 0x5b, 0x3c, 0x7e, 0x0f, 0xeb, 0x25, 0xed, 
  0x2b, 0x6c, 0x37, 0x77, 0x47, 0x27, 0x49, 0x2d, 0x44, 0x05, 0x3a, 0x64, 
  0x16, 0xeb, 0x5e, 0x47, 0x17, 0x48, 0x62, 0x66, 0xd2, 0xa0, 0x4a, 0xc1, 
  0xba, 0x13, 0xd9, 0x2f, 0xbe, 0x2f, 0xc7, 0x36, 0xdc, 0x23, 0x0f, 0xce, 
  0x38, 0xe6, 0xc6, 0x05, 0x59, 0xde, 0xd0, 0x07, 0x39, 0x60, 0xe6, 0xb1, 
  0x5c, 0xb3, 0x51, 0x21, 0xce, 0xfa, 0xfb, 0x99, 0x28, 0xa2, 0x9a, 0x51, 
  0xe4, 0x33, 0xfb, 0x5b, 0x2b, 0xaf, 0x40, 0xd3, 0xd5, 0x01, 0xf5, 0xe7, 
  0x14, 0x58, 0x36, 0xd7, 0xaf, 0x4d, 0xd1, 0xdd, 0x43, 0xa8, 0xdc, 0x03, 
  0xe5, 0x5a, 0xfb, 0x9e, 0x99, 0x30, 0xae, 0x43, 0xdf, 0xe8, 0xaf, 0x60, 
  0x08, 0x17, 0xaa, 0x49, 0x52, 0xc7, 0xa0, 0x21, 0xf6, 0x96, 0x9e, 0xad, 
  0x09, 0xb4, 0x4d, 0x64, 0xff, 0x41, 0x81, 0x2a, 0xd7, 0x39, 0x9f, 0x60, 
  0xab, 0xc3, 0x4a, 0x95, 0xc3, 0x36, 0x69, 0xa8, 0xb6, 0x06, 0x9d, 0x4a, 
  0x21, 0xfd, 0x3f, 0x36, 0x94, 0x35, 0x1c, 0xf0, 0xa7, 0xd3, 0xfa, 0x97, 
  0x24, 0xaa, 0x28, 0x5a, 0xfe, 0xa5, 0x31, 0xfd, 0xa4, 0x1f, 0xc9, 0xb6, 
  0xc0, 0xa5, 0xe4, 0x0b, 0xdd, 0x29, 0x37, 0xec, 0xc1, 0xfa, 0x06, 0x0f, 
  0x87, 0x46, 0xf1, 0x43, 0x0b, 0x27, 0xa5, 0xd9, 0x1b, 0x19, 0x13, 0x40, 
  0xe6, 0x64, 0xef, 0x59, 0xdc, 0x3d, 0xa7, 0x51, 0xd1, 0x0e, 0xe7, 0x47, 
  0xbe, 0x1e, 0xa0, 0xb2, 0x33, 0xea, 0x0e, 0xaa, 0x48, 0x41, 0x41, 0x20, 
  0x28, 0x8f, 0xb0, 0x1c, 0x16, 0x3b, 0x9f, 0x0d, 0x90, 0x47, 0x01, 0x2b, 
  0xf7, 0xea, 0x2c, 0x9a, 0xb3, 0xe9, 0x34, 0xf7, 0x33, 0xdb, 0x0d, 0xcd, 
  0x9d, 0xb4, 0x29, 0x13, 0xc9, 0x3e, 0xfb, 0x12, 0x4a, 0x8a, 0xa3, 0xdb, 
  0x49, 0xd5, 0x19, 0x1d, 0x91, 0xcc, 0x09, 0x37, 0xb8, 0x86, 0x1f, 0xd4, 
  0x65, 0xdd, 0x2d, 0xd0, 0x65, 0x31, 0xdf, 0x4e, 0xa4, 0x3a, 0xc1, 0x35, 
  0x58, 0xf0, 0x59, 0x26, 0xec, 0xda, 0x37, 0xbe, 0xe8, 0xaa, 0xc1, 0xdd, 
  0x85, 0xab, 0xff, 0x40, 0xbb, 0x59, 0xd4, 0x42, 0xa0, 0xca, 0xd6, 0xce, 
  0x12, 0x26, 0xe7, 0x22, 0x1d, 0xdc, 0x1c, 0xb1, 0xfa, 0x00, 0x4a, 0x94, 
  0xfe, 0x05, 0xf1, 0x40, 0xe4, 0x62, 0x91, 0x54, 0xad, 0x3e, 0xc2, 0xc0, 
  0x40, 0xc8, 0xea, 0x8c, 0xea, 0x0e, 0x3c, 0x29, 0x50, 0x96, 0xad, 0x01, 
  0xe5, 0xd3, 0xf9, 0xfc, 0x14, 0xca, 0x5f, 0xea, 0x0d, 0x5c, 0xb0, 0x24, 
  0xbc, 0xe3, 0x24, 0xf6, 0x16, 0x67, 0xa2, 0xe1, 0xce, 0xb9, 0xf2, 0xfc, 
  0x13, 0xe9, 0x26, 0x03, 0x35, 0x09, 0xd9, 0xec, 0xa5, 0x0f, 0xda, 0x9f, 
  0xe7, 0xbc, 0xfc, 0xd4, 0xc1, 0x4c, 0x05, 0xbd, 0xc8, 0xfa, 0xda, 0x04, 
  0x0f, 0x54, 0xc1, 0xb6, 0x0c, 0xb6, 0xe1, 0x85, 0x03, 0x00, 0xf3, 0x14, 
  0x70, 0xfb, 0xcd, 0xb1, 0x9e, 0x4e, 0x07, 0xee, 0xd3, 0x21, 0x34, 0xc5, 
  0xac, 0x77, 0xe6, 0xeb, 0xeb, 0x0e, 0xff, 0xfd, 0x18, 0xf2, 0xd4, 0xf9, 
  0xdf, 0x03, 0x12, 0x8d, 0x29, 0x37, 0x1d, 0xdb, 0xd9, 0xe8, 0x16, 0xc6, 
  0xbc, 0xfd, 0xe1, 0xb6, 0xac, 0x0d, 0xe3, 0xff, 0xf0, 0x5d, 0xef, 0x0f, 
  0x20, 0xc2, 0x21, 0xc2, 0xc0, 0xec, 0xa2, 0x02, 0x29, 0xfb, 0xf5, 0xc1, 
  0x3d, 0xd9, 0xf8, 0x1c, 0x3d, 0xeb, 0xf5, 0xfd, 0xbe, 0x31, 0x31, 0xa6, 
  0x1a, 0xd0, 0x29, 0xdb, 0x08, 0x20, 0x8f, 0xda, 0x14, 0xeb, 0x26, 0xc9, 
  0xb0, 0x4d, 0xb6, 0x0e, 0xd4, 0xf6, 0xcb, 0xc6, 0x7f, 0x4b, 0xd7, 0x0a, 
  0x40, 0xed, 0xeb, 0x08, 0xa7, 0x24, 0x08, 0xe7, 0xed, 0x1f, 0x42, 0xa9, 
  0xd1, 0x53, 0x9c, 0x08, 0x02, 0x9a, 0xf2, 0x09, 0xed, 0x3f, 0x06, 0xf9, 
  0x04, 0x07, 0x9e, 0x94, 0x4c, 0xea, 0xdf, 0x4b, 0x1c, 0xe6, 0xe0, 0x09, 
  0x01, 0x37, 0x0d, 0x94, 0xc8, 0xc0, 0xd3, 0x02, 0xdc, 0xf8, 0xc4, 0xc8, 
  0xa7, 0x14, 0x13, 0xc3, 0xcb, 0x2c, 0xdf, 0xc7, 0x20, 0xc9, 0xdd, 0xb6, 
  0xf3, 0xf2, 0x09, 0xf4, 0xff, 0x15, 0xe5, 0xa3, 0xb9, 0x03, 0x1a, 0xa5, 
  0x06, 0x26, 0x1d, 0xc7, 0x28, 0x25, 0x8f, 0xa7, 0xc8, 0xa1, 0xf9, 0xb6, 
  0xff, 0xfe, 0xbe, 0xa8, 0x26, 0xfa, 0x0b, 0x8b, 0x77, 0x2e, 0xeb, 0xfc, 
  0x26, 0x11, 0x0d, 0xc9, 0xd5, 0x2f, 0xc5, 0xb6, 0x18, 0xd0, 0x0c, 0xcc, 
  0xe9, 0x35, 0x09, 0xd8, 0x95, 0xc1, 0xba, 0xae, 0x03, 0x21, 0x76, 0x6e, 
  0x41, 0x59, 0x28, 0x24, 0x1b, 0x02, 0x00, 0x0b, 0xc9, 0x30, 0xe6, 0x14, 
  0x42, 0x1a, 0x38, 0x3d, 0x36, 0x50, 0x1c, 0x08, 0x1c, 0xae, 0xf3, 0x53, 
  0x14, 0x71, 0x34, 0xf4, 0x27, 0xc5, 0x09, 0x3d, 0xef, 0x5a, 0x34, 0x6d, 
  0x19, 0x30, 0xd3, 0x10, 0x11, 0x6c, 0x21, 0x18, 0x79, 0x2a, 0x12, 0x03, 
  0x45, 0x4a, 0x29, 0xfc, 0x07, 0xe0, 0x1d, 0x21, 0x26, 0x6b, 0x3b, 0x06, 
  0x2a, 0x1c, 0x50, 0x2b, 0x2a, 0x6f, 0x5b, 0x5b, 0xd1, 0xfa, 0x34, 0x2b, 
  0xcc, 0x7c, 0x44, 0x7f, 0x1f, 0x3e, 0x6c, 0xfc, 0xf8, 0x35, 0xfd, 0x07, 
  0x69, 0xa3, 0xf9, 0x3c, 0x18, 0x46, 0x64, 0x34, 0x6f, 0x24, 0x0a, 0x49, 
  0x4e, 0x33, 0x32, 0x7f, 0x18, 0xd8, 0x35, 0x34, 0x09, 0x45, 0x34, 0x1b, 
  0x56, 0x17, 0x0f, 0xfa, 0x2f, 0xf6, 0xd3, 0x0b, 0x0a, 0xbb, 0xf1, 0x46, 
  0x4d, 0x25, 0x63, 0xfa, 0x39, 0xce, 0x08, 0x52, 0x3b, 0x23, 0x65, 0x57, 
  0xd5, 0xfd, 0xe9, 0x1f, 0xf4, 0x31, 0xff, 0x39, 0x42, 0x24, 0x70, 0x2a, 
  0x52, 0x45, 0x09, 0x34, 0x03, 0xad, 0x3b, 0x12, 0x32, 0x30, 0x16, 0x44, 
  0x2c, 0x1e, 0x71, 0x57, 0xfa, 0x7e, 0x53, 0x26, 0xca, 0x1c, 0xda, 0xde, 
  0xd1, 0x5f, 0x4b, 0x60, 0x46, 0xeb, 0x3c, 0x14, 0x1a, 0x23, 0xd2, 0x38, 
  0x03, 0xca, 0x1e, 0x1c, 0x33, 0x3b, 0x31, 0x46, 0x01, 0x33, 0x18, 0x0a, 
  0x29, 0x2d, 0x2b, 0x54, 0xf0, 0x41, 0xdb, 0x0a, 0x16, 0x3a, 0x40, 0x0f, 
  0x40, 0x17, 0x40, 0xe9, 0x25, 0xff, 0x02, 0x20, 0x28, 0xd9, 0x20, 0x0d, 
  0x41, 0x38, 0x6d, 0xe6, 0x70, 0x01, 0x4f, 0x09, 0x18, 0x7e, 0x72, 0x23, 
  0x00, 0x2f, 0x1a, 0x1c, 0xf7, 0x3c, 0x47, 0x60, 0x5d, 0xf9, 0x26, 0x0c, 
  0x38, 0xf9, 0x29, 0x43, 0x26, 0x0c, 0x44, 0xf5, 0x44, 0x76, 0x01, 0x0e, 
  0x56, 0xf6, 0x61, 0x5f, 0x0c, 0x44, 0x5d, 0x51, 0xe0, 0x27, 0xdc, 0xda, 
  0x27, 0x64, 0x4f, 0x78, 0x48, 0xe4, 0x10, 0x20, 0x57, 0x2f, 0x17, 0x0a, 
  0x03, 0xe5, 0x18, 0x44, 0x2d, 0x67, 0x53, 0xed, 0x94, 0xb4, 0x17, 0x4e, 
  0x97, 0x52, 0x2b, 0x25, 0xe6, 0xfd, 0xcb, 0xa7, 0x96, 0xa4, 0x8c, 0x6c, 
  0x3b, 0x9e, 0xd4, 0xb2, 0x58, 0x98, 0x50, 0x12, 0x51, 0x51, 0xa4, 0xe4, 
  0x98, 0x8f, 0xce, 0x8e, 0xba, 0xf9, 0xf7, 0x30, 0x73, 0x3a, 0xad, 0xcd, 
  0xee, 0x3a, 0xa1, 0x91, 0x9a, 0x4a, 0xf7, 0x2b, 0x68, 0x9f, 0x1c, 0x25, 
  0x0f, 0x25, 0xdb, 0x43, 0x4d, 0x61, 0xb5, 0xab, 0x42, 0x37, 0xb5, 0x44, 
  0x37, 0x85, 0xe7, 0x24, 0x30, 0xab, 0xa1, 0xa3, 0xc6, 0x2a, 0x68, 0x57, 
  0x04, 0x18, 0x17, 0x66, 0xcb, 0x10, 0xca, 0x51, 0x4d, 0x6f, 0xd1, 0x41, 
  0xfb, 0x2d, 0x40, 0xb1, 0xa6, 0xbe, 0x02, 0x63, 0xf2, 0x59, 0xb7, 0xe4, 
  0x9d, 0xb5, 0x37, 0x52, 0x98, 0xf1, 0x5a, 0x0a, 0xa9, 0xf3, 0x2e, 0xd8, 
  0xc5, 0x88, 0xc7, 0xd5, 0x33, 0x1a, 0x01, 0x61, 0x0d, 0xf8, 0x92, 0x3a, 
  0x1c, 0xda, 0x45, 0x92, 0xc9, 0xf2, 0x33, 0x03, 0xd8, 0x05, 0x53, 0xb8, 
  0xbf, 0xfa, 0xc6, 0xae, 0x9b, 0xa2, 0xdd, 0xc7, 0xcc, 0xdc, 0x10, 0x01, 
  0x50, 0x1a, 0xeb, 0xc4, 0xed, 0xaa, 0xaa, 0x07, 0x13, 0x71, 0xfd, 0x5c, 
  0xa9, 0x28, 0x9c, 0x4b, 0x8f, 0x40, 0x8b, 0x97, 0x5a, 0x8c, 0xb7, 0xdf, 
  0xa5, 0x87, 0x86, 0x9e, 0xc9, 0x34, 0xc8, 0x66, 0xce, 0x61, 0xb4, 0x24, 
  0x12, 0xbe, 0xba, 0xe7, 0xac, 0x78, 0xb9, 0x1a, 0xcb, 0x6a, 0xcd, 0xf3, 
  0xb9, 0xac, 0x28, 0xa5, 0x47, 0x9f, 0x64, 0x31, 0x05, 0x2f, 0x5e, 0xc9, 
  0xd1, 0x02, 0xec, 0x29, 0x1b, 0x41, 0x86, 0x4d, 0x3d, 0x51, 0xd8, 0x0b, 
  0xa8, 0x73, 0xf8, 0x0f, 0xa5, 0xe2, 0x60, 0x49, 0x15, 0xe9, 0xf4, 0x59, 
  0x4c, 0x31, 0x70, 0x9e, 0xc8, 0xac, 0x28, 0x2c, 0xb4, 0x3d, 0xa2, 0xbd, 
  0x5b, 0x8a, 0x10, 0x65, 0xf1, 0xdf, 0xcc, 0xd9, 0x8a, 0x3c, 0x9f, 0x66, 
  0xb6, 0xd6, 0x5e, 0x58, 0x96, 0x85, 0x6a, 0x52, 0x58, 0x5d, 0x3f, 0xde, 
  0x5c, 0x98, 0x81, 0x2b, 0x9d, 0x9f, 0xa1, 0x33, 0x9e, 0x27, 0xe3, 0x93, 
  0xd8, 0x69, 0xef, 0x66, 0xcb, 0x22, 0xa1, 0x71, 0xef, 0x08, 0xd1, 0x8e, 
  0x91, 0xa2, 0x0d, 0x55, 0xcf, 0x24, 0x6a, 0x00, 0x63, 0x52, 0x57, 0xbb, 
  0x0b, 0x9b, 0xee, 0xb7, 0x4c, 0xd3, 0x3a, 0xbc, 0xa2, 0x38, 0x04, 0xce, 
  0x9e, 0x17, 0x21, 0x9e, 0xb9, 0x91, 0xcc, 0xa6, 0xde, 0xef, 0xb0, 0xb8, 
  0x31, 0x02, 0x3d, 0xb5, 0x99, 0xa2, 0xa9, 0x8d, 0x19, 0xb0, 0x50, 0xfd, 
  0xa8, 0xdb, 0x5d, 0xb9, 0x1b, 0x3a, 0x2e, 0x50, 0xcc, 0x32, 0xe4, 0xcf, 
  0x09, 0x44, 0xa8, 0x91, 0xf0, 0x27, 0xed, 0x67, 0xe8, 0x23, 0x9a, 0x4c, 
  0xeb, 0x9a, 0x3c, 0x45, 0xa3, 0x49, 0x32, 0x98, 0xa8, 0xe6, 0xc8, 0xdc, 
  0xf7, 0x41, 0xd9, 0x5b, 0x44, 0x35, 0xf7, 0x45, 0xc9, 0xd6, 0x2d, 0xcc, 
  0xd6, 0xab, 0x13, 0xa0, 0xac, 0xd4, 0x38, 0x3a, 0x1a, 0x45, 0x93, 0xac, 
  0x3c, 0x4f, 0x00, 0x2c, 0xfe, 0x47, 0xb6, 0x37, 0x62, 0xc3, 0x4a, 0x00, 
  0x56, 0xbd, 0x34, 0x19, 0x55, 0xa5, 0xd9, 0x35, 0xae, 0xde, 0xc2, 0x15, 
  0xbc, 0x5b, 0xec, 0xa1, 0x90, 0x87, 0x59, 0x81, 0xfd, 0x50, 0xf3, 0x3f, 
  0xff, 0xda, 0xe9, 0xe8, 0xcd, 0x0b, 0xf6, 0x2e, 0x03, 0xd9, 0x96, 0xd7, 
  0x3c, 0x2f, 0xe7, 0x94, 0xda, 0xb9, 0xf3, 0x37, 0xb6, 0x26, 0x19, 0x22, 
  0xe7, 0x25, 0x5c, 0xc7, 0x0e, 0x06, 0x14, 0x14, 0xb7, 0xeb, 0xf0, 0xb8, 
  0xa8, 0xf0, 0xf8, 0x30, 0x01, 0xa4, 0xec, 0xd9, 0xd8, 0x9d, 0x54, 0xbf, 
  0xf0, 0x50, 0xa7, 0x3b, 0x8f, 0xdb, 0xbe, 0x24, 0x00, 0x89, 0xcf, 0x48, 
  0xd1, 0x24, 0x4b, 0xc1, 0x59, 0x3a, 0xce, 0x32, 0x28, 0x1c, 0x59, 0xdd, 
  0x2e, 0xd4, 0x0c, 0xb4, 0x25, 0x06, 0xae, 0x23, 0x5b, 0x0f, 0x56, 0x2e, 
  0x45, 0xc6, 0x96, 0xad, 0x63, 0xf7, 0x25, 0xe9, 0xe0, 0x3d, 0xf4, 0x3b, 
  0x4c, 0xa4, 0xbe, 0x31, 0x1d, 0x12, 0x1b, 0xe4, 0xf3, 0x01, 0x40, 0xab, 
  0xf3, 0x26, 0xab, 0xb2, 0x29, 0xf4, 0x55, 0xd2, 0x52, 0x9e, 0x54, 0xb6, 
  0xd8, 0xdc, 0x31, 0xc3, 0x16, 0xad, 0x1d, 0xc8, 0x38, 0xf5, 0xec, 0x2e, 
  0x08, 0xe5, 0x1f, 0x0f, 0x1b, 0x39, 0x1f, 0x1f, 0xe4, 0x42, 0xb2, 0xca, 
  0xfc, 0x9d, 0x08, 0xb7, 0x32, 0x22, 0xd0, 0x4d, 0x1a, 0xe1, 0xd3, 0x9e, 
  0xfb, 0x3c, 0xba, 0x2a, 0xc1, 0xd9, 0x29, 0xcb, 0xe4, 0xfe, 0x14, 0xfb, 
  0x03, 0xe4, 0xc0, 0xeb, 0xe4, 0x5b, 0xfd, 0xcd, 0x3c, 0xf3, 0xce, 0xef, 
  0xf6, 0x24, 0x20, 0xf4, 0xed, 0xda, 0xe5, 0xef, 0xda, 0x15, 0x9e, 0xb8, 
  0x0a, 0x12, 0x3d, 0xc1, 0xf9, 0x14, 0xc7, 0xf9, 0x03, 0x0d, 0x9d, 0xed, 
  0xcd, 0x17, 0xa5, 0xbe, 0xe0, 0xf0, 0x00, 0xe5, 0x3f, 0x44, 0xc3, 0x3a, 
  0x49, 0xa8, 0x09, 0xc6, 0x97, 0xf1, 0xf5, 0x1c, 0xec, 0xc8, 0x4f, 0xdd, 
  0x12, 0x36, 0x24, 0xfb, 0xf7, 0xe7, 0xdb, 0x0d, 0xb7, 0x08, 0xaf, 0xa6, 
  0xea, 0x98, 0xbf, 0x88, 0x3c, 0x38, 0xc8, 0x0b, 0xe0, 0x9a, 0xcf, 0xe3, 
  0x11, 0x2d, 0xb4, 0x2d, 0xd5, 0xc2, 0x48, 0x1a, 0x15, 0x18, 0x0e, 0xf1, 
  0x18, 0x9b, 0xc7, 0x0e, 0xb5, 0xfd, 0xf8, 0x1f, 0x27, 0xf9, 0xbc, 0xf5, 
  0x25, 0xee, 0xfd, 0x02, 0xf9, 0x96, 0xd3, 0x98, 0xdd, 0xff, 0x19, 0xfa, 
  0xcb, 0xba, 0x46, 0xce, 0xfa, 0x54, 0x22, 0xed, 0x27, 0x02, 0xbe, 0x07, 
  0x03, 0x57, 0xca, 0xb9, 0xfc, 0xf4, 0xa4, 0x9f, 0x1e, 0xeb, 0x06, 0x27, 
  0x37, 0xf4, 0xd1, 0xf9, 0xda, 0x15, 0xb1, 0xf4, 0x21, 0xb8, 0x38, 0xdd, 
  0x03, 0x1d, 0xb7, 0xcb, 0xe2, 0xc0, 0xd0, 0x2e, 0xbf, 0xfb, 0xb0, 0xce, 
  0x16, 0xfb, 0xd5, 0xc7, 0x17, 0x12, 0xcc, 0x49, 0xdc, 0xe2, 0x14, 0xcb, 
  0xdf, 0x37, 0x1a, 0xd2, 0xef, 0xbe, 0x2b, 0xc6, 0x13, 0xed, 0x15, 0xe3, 
  0x0c, 0x9f, 0xfc, 0xf1, 0xfb, 0x18, 0x08, 0xe2, 0xf6, 0xbb, 0x9f, 0xdc, 
  0x02, 0xdb, 0x18, 0xe8, 0xe3, 0x01, 0x23, 0xfd, 0xd4, 0x1c, 0xd3, 0x28, 
  0xdb, 0xc8, 0x2a, 0xef, 0xf3, 0x08, 0xf7, 0xcc, 0xc0, 0x00, 0xf2, 0xef, 
  0xe6, 0x4b, 0x13, 0xfc, 0x2b, 0xac, 0xc4, 0x81, 0x46, 0x47, 0x2d, 0x51, 
  0x14, 0xe7, 0xc4, 0xa6, 0xa8, 0x0c, 0xa6, 0xc4, 0xaa, 0xba, 0x10, 0xca, 
  0xd2, 0x07, 0xb8, 0x1a, 0x0c, 0x91, 0x16, 0x03, 0x4d, 0x1c, 0x23, 0x69, 
  0x08, 0x3b, 0x1f, 0x32, 0xfa, 0x1a, 0xf0, 0x1d, 0x38, 0x67, 0x33, 0x33, 
  0x73, 0xf5, 0x19, 0x47, 0x13, 0xf7, 0x1f, 0x39, 0x06, 0x08, 0x22, 0x0d, 
  0x14, 0x3b, 0x1e, 0x42, 0x68, 0x23, 0x62, 0x28, 0x1e, 0x46, 0x2b, 0x29, 
  0xe3, 0xd8, 0xdf, 0x30, 0xd6, 0x1d, 0xff, 0x2e, 0x47, 0x30, 0x46, 0x17, 
  0xf7, 0xfa, 0x21, 0x0b, 0x6d, 0xfe, 0x26, 0x37, 0x5e, 0x39, 0x42, 0x1f, 
  0x15, 0xc7, 0x40, 0x17, 0x1b, 0x65, 0x68, 0x50, 0xd4, 0xc9, 0xd3, 0xe2, 
  0xf0, 0x4d, 0x03, 0x4a, 0x5a, 0xf6, 0x11, 0x3f, 0xf8, 0xfa, 0xee, 0x62, 
  0x5c, 0xfa, 0x19, 0x3c, 0x25, 0x57, 0x42, 0x45, 0x4b, 0x08, 0x60, 0x6e, 
  0xe8, 0x30, 0x5c, 0x31, 0xf3, 0x01, 0xd4, 0xd2, 0x0a, 0x2a, 0x11, 0x20, 
  0x51, 0x08, 0x69, 0x32, 0x4c, 0x60, 0x18, 0x1f, 0x4e, 0x20, 0x08, 0x0d, 
  0x34, 0x7e, 0x50, 0x05, 0x29, 0x13, 0x0c, 0x35, 0xe8, 0x5d, 0x52, 0x5d, 
  0xcd, 0xe8, 0xfb, 0xdf, 0x1c, 0x53, 0x32, 0x1f, 0x5f, 0x44, 0x78, 0xf2, 
  0x4c, 0x53, 0xfa, 0x54, 0x4f, 0x03, 0xff, 0x32, 0xfd, 0x27, 0x4f, 0x34, 
  0x45, 0x0d, 0x10, 0x06, 0x4b, 0x64, 0x22, 0x41, 0xe5, 0x1d, 0xf7, 0xea, 
  0xce, 0x71, 0x0a, 0x7f, 0x6c, 0xd9, 0x5a, 0x35, 0xfc, 0x5f, 0x1e, 0x50, 
  0x33, 0xc5, 0x37, 0xfe, 0x27, 0x18, 0x0a, 0x49, 0x5b, 0xdb, 0x54, 0x53, 
  0x1c, 0x14, 0x22, 0x58, 0x05, 0xda, 0xca, 0x0f, 0x05, 0x7c, 0xf2, 0x35, 
  0x21, 0x2f, 0x6a, 0x44, 0x1e, 0x2d, 0x2d, 0x64, 0x6e, 0xda, 0x07, 0x14, 
  0x5f, 0x37, 0x38, 0x39, 0x45, 0xff, 0x6b, 0x10, 0x0d, 0x6f, 0x50, 0x3e, 
  0x1c, 0x35, 0xde, 0x0a, 0x31, 0x51, 0x44, 0x45, 0x49, 0x3f, 0x5a, 0x13, 
  0x01, 0x58, 0x15, 0x28, 0x0d, 0xf7, 0xfc, 0x43, 0x5c, 0x48, 0x1b, 0xfe, 
  0x48, 0x10, 0x23, 0xfd, 0x0d, 0x6b, 0x4d, 0x46, 0x08, 0xfa, 0x0b, 0x05, 
  0xc8, 0x79, 0x02, 0x4e, 0x79, 0xe7, 0x50, 0x52, 0x5a, 0x09, 0xd4, 0x50, 
  0x1c, 0xda, 0x42, 0xff, 0x4a, 0x78, 0x13, 0x10, 0xeb, 0x4b, 0x22, 0x8c, 
  0x0b, 0xa6, 0x86, 0xf4, 0xe5, 0xe0, 0xa1, 0x29, 0xdf, 0x24, 0xb8, 0xc7, 
  0xf1, 0xfc, 0x0b, 0xc6, 0xe7, 0x97, 0x3e, 0xb2, 0x95, 0x31, 0x5b, 0x93, 
  0xd4, 0x4b, 0x81, 0xa9, 0x48, 0x4b, 0xb9, 0xb0, 0xa0, 0x95, 0xb5, 0xbc, 
  0x15, 0xf9, 0xb1, 0x0c, 0xc5, 0x99, 0x13, 0x8c, 0x4e, 0xe4, 0xc5, 0x63, 
  0x8a, 0x10, 0x4d, 0x0f, 0x40, 0x2c, 0x18, 0x96, 0xd4, 0x41, 0x23, 0x67, 
